{
  "version": "1.0",
  "truncation": null,
  "padding": null,
  "added_tokens": [
    {
      "id": 0,
      "content": "[PAD]",
      "single_word": false,
      "lstrip": false,
      "rstrip": false,
      "normalized": false,
      "special": true
    },
    {
      "id": 1,
      "content": "[UNK]",
      "single_word": false,
      "lstrip": false,
      "rstrip": false,
      "normalized": false,
      "special": true
    },
    {
      "id": 2,
      "content": "[CLS]",
      "single_word": false,
      "lstrip": false,
      "rstrip": false,
      "normalized": false,
      "special": true
    },
    {
      "id": 3,
      "content": "[SEP]",
      "single_word": false,
      "lstrip": false,
      "rstrip": false,
      "normalized": false,
      "special": true
    }
  ],
  "normalizer": null,
  "pre_tokenizer": {
    "type": "Whitespace"
  },
  "post_processor": null,
  "decoder": null,
  "model": {
    "type": "BPE",
    "dropout": null,
    "unk_token": "[UNK]",
    "continuing_subword_prefix": null,
    "end_of_word_suffix": null,
    "fuse_unk": false,
    "byte_fallback": false,
    "ignore_merges": false,
    "vocab": {
      "[PAD]": 0,
      "[UNK]": 1,
      "[CLS]": 2,
      "[SEP]": 3,
      "a": 4,
      "b": 5,
      "c": 6,
      "d": 7,
      "e": 8,
      "f": 9,
      "g": 10,
      "h": 11,
      "i": 12,
      "j": 13,
      "k": 14,
      "l": 15,
      "m": 16,
      "n": 17,
      "o": 18,
      "p": 19,
      "q": 20,
      "r": 21,
      "s": 22,
      "t": 23,
      "u": 24,
      "v": 25,
      "w": 26,
      "x": 27,
      "y": 28,
      "z": 29,
      "an": 30,
      "ar": 31,
      "ha": 32,
      "at": 33,
      "al": 34,
      "hi": 35,
      "ra": 36,
      "on": 37,
      "in": 38,
      "ya": 39,
      "sh": 40,
      "ad": 41,
      "ch": 42,
      "am": 43,
      "ri": 44,
      "en": 45,
      "as": 46,
      "er": 47,
      "ak": 48,
      "ti": 49,
      "ur": 50,
      "un": 51,
      "vi": 52,
      "ta": 53,
      "la": 54,
      "and": 55,
      "har": 56,
      "kar": 57,
      "li": 58,
      "ma": 59,
      "es": 60,
      "di": 61,
      "cha": 62,
      "han": 63,
      "or": 64,
      "it": 65,
      "sha": 66,
      "st": 67,
      "ba": 68,
      "yan": 69,
      "ul": 70,
      "sa": 71,
      "ka": 72,
      "na": 73,
      "man": 74,
      "ati": 75,
      "ud": 76,
      "va": 77,
      "ari": 78,
      "ro": 79,
      "el": 80,
      "chi": 81,
      "bha": 82,
      "ut": 83,
      "ga": 84,
      "ni": 85,
      "si": 86,
      "uk": 87,
      "et": 88,
      "da": 89,
      "shi": 90,
      "de": 91,
      "um": 92,
      "pa": 93,
      "ho": 94,
      "ing": 95,
      "ala": 96,
      "ji": 97,
      "gi": 98,
      "le": 99,
      "re": 100,
      "ja": 101,
      "pur": 102,
      "ani": 103,
      "mi": 104,
      "ara": 105,
      "bi": 106,
      "he": 107,
      "pra": 108,
      "ki": 109,
      "us": 110,
      "ana": 111,
      "ang": 112,
      "ant": 113,
      "ali": 114,
      "up": 115,
      "lo": 116,
      "yon": 117,
      "par": 118,
      "sam": 119,
      "var": 120,
      "ko": 121,
      "hu": 122,
      "te": 123,
      "ata": 124,
      "ye": 125,
      "co": 126,
      "se": 127,
      "wa": 128,
      "mo": 129,
      "adi": 130,
      "ram": 131,
      "war": 132,
      "pi": 133,
      "po": 134,
      "ed": 135,
      "gar": 136,
      "kha": 137,
      "pat": 138,
      "pu": 139,
      "yo": 140,
      "che": 141,
      "go": 142,
      "kh": 143,
      "ne": 144,
      "ke": 145,
      "pr": 146,
      "san": 147,
      "hat": 148,
      "bo": 149,
      "ane": 150,
      "su": 151,
      "dh": 152,
      "fi": 153,
      "me": 154,
      "to": 155,
      "sar": 156,
      "bh": 157,
      "chya": 158,
      "ve": 159,
      "mad": 160,
      "dha": 161,
      "jan": 162,
      "van": 163,
      "th": 164,
      "vas": 165,
      "so": 166,
      "bar": 167,
      "ge": 168,
      "pan": 169,
      "kal": 170,
      "dar": 171,
      "mar": 172,
      "ent": 173,
      "hin": 174,
      "do": 175,
      "ran": 176,
      "be": 177,
      "ate": 178,
      "bad": 179,
      "shan": 180,
      "raj": 181,
      "pe": 182,
      "wal": 183,
      "tha": 184,
      "ru": 185,
      "kan": 186,
      "char": 187,
      "end": 188,
      "pad": 189,
      "sat": 190,
      "pal": 191,
      "ind": 192,
      "rit": 193,
      "ck": 194,
      "gan": 195,
      "tar": 196,
      "mu": 197,
      "il": 198,
      "dhar": 199,
      "yat": 200,
      "bhi": 201,
      "ation": 202,
      "ini": 203,
      "gh": 204,
      "bal": 205,
      "gu": 206,
      "mat": 207,
      "hal": 208,
      "ers": 209,
      "dhi": 210,
      "vad": 211,
      "kam": 212,
      "du": 213,
      "ir": 214,
      "ku": 215,
      "fa": 216,
      "dhan": 217,
      "tra": 218,
      "bhar": 219,
      "yak": 220,
      "ath": 221,
      "is": 222,
      "bu": 223,
      "band": 224,
      "chand": 225,
      "ce": 226,
      "mal": 227,
      "jo": 228,
      "con": 229,
      "val": 230,
      "tri": 231,
      "gra": 232,
      "ci": 233,
      "ban": 234,
      "yi": 235,
      "lu": 236,
      "kat": 237,
      "ine": 238,
      "ap": 239,
      "no": 240,
      "madh": 241,
      "kad": 242,
      "rat": 243,
      "maha": 244,
      "und": 245,
      "ama": 246,
      "ter": 247,
      "muk": 248,
      "ina": 249,
      "thi": 250,
      "hari": 251,
      "yar": 252,
      "ksha": 253,
      "mak": 254,
      "karan": 255,
      "she": 256,
      "ol": 257,
      "pari": 258,
      "pak": 259,
      "yu": 260,
      "bat": 261,
      "mas": 262,
      "vya": 263,
      "ber": 264,
      "tu": 265,
      "kri": 266,
      "uni": 267,
      "wala": 268,
      "lak": 269,
      "ada": 270,
      "pro": 271,
      "khi": 272,
      "gha": 273,
      "ron": 274,
      "id": 275,
      "ct": 276,
      "yam": 277,
      "tak": 278,
      "kari": 279,
      "vak": 280,
      "una": 281,
      "ju": 282,
      "sw": 283,
      "tan": 284,
      "ver": 285,
      "sho": 286,
      "pas": 287,
      "jha": 288,
      "yen": 289,
      "ly": 290,
      "chha": 291,
      "fo": 292,
      "vat": 293,
      "bas": 294,
      "pura": 295,
      "son": 296,
      "ag": 297,
      "sad": 298,
      "im": 299,
      "ca": 300,
      "je": 301,
      "sing": 302,
      "car": 303,
      "gat": 304,
      "mon": 305,
      "kas": 306,
      "gal": 307,
      "ton": 308,
      "kon": 309,
      "tam": 310,
      "din": 311,
      "com": 312,
      "gad": 313,
      "za": 314,
      "gur": 315,
      "sang": 316,
      "shar": 317,
      "vid": 318,
      "shwar": 319,
      "bra": 320,
      "tion": 321,
      "lan": 322,
      "nam": 323,
      "hit": 324,
      "ura": 325,
      "mand": 326,
      "lal": 327,
      "per": 328,
      "for": 329,
      "hara": 330,
      "ham": 331,
      "vish": 332,
      "khan": 333,
      "antar": 334,
      "dev": 335,
      "zi": 336,
      "sal": 337,
      "khe": 338,
      "uda": 339,
      "jal": 340,
      "bhu": 341,
      "was": 342,
      "mul": 343,
      "ment": 344,
      "cal": 345,
      "nar": 346,
      "pun": 347,
      "res": 348,
      "ll": 349,
      "tal": 350,
      "wi": 351,
      "das": 352,
      "gen": 353,
      "sak": 354,
      "pre": 355,
      "vo": 356,
      "wan": 357,
      "sin": 358,
      "jam": 359,
      "ty": 360,
      "hy": 361,
      "sur": 362,
      "madhye": 363,
      "mit": 364,
      "sen": 365,
      "prati": 366,
      "jh": 367,
      "vai": 368,
      "adhi": 369,
      "dan": 370,
      "jar": 371,
      "nir": 372,
      "bai": 373,
      "chan": 374,
      "wali": 375,
      "gam": 376,
      "wadi": 377,
      "ade": 378,
      "bak": 379,
      "endra": 380,
      "cho": 381,
      "mani": 382,
      "gun": 383,
      "lam": 384,
      "ele": 385,
      "adh": 386,
      "fe": 387,
      "ab": 388,
      "qu": 389,
      "vin": 390,
      "men": 391,
      "vir": 392,
      "dal": 393,
      "ven": 394,
      "shu": 395,
      "anda": 396,
      "pit": 397,
      "vadi": 398,
      "uli": 399,
      "tic": 400,
      "pri": 401,
      "chin": 402,
      "kum": 403,
      "ghat": 404,
      "ell": 405,
      "pl": 406,
      "dur": 407,
      "akar": 408,
      "yal": 409,
      "bho": 410,
      "hon": 411,
      "tr": 412,
      "far": 413,
      "sathi": 414,
      "uri": 415,
      "bhav": 416,
      "kho": 417,
      "sri": 418,
      "ash": 419,
      "sk": 420,
      "jit": 421,
      "iya": 422,
      "cy": 423,
      "rak": 424,
      "wat": 425,
      "bhan": 426,
      "ex": 427,
      "met": 428,
      "min": 429,
      "khar": 430,
      "cor": 431,
      "para": 432,
      "nagar": 433,
      "hil": 434,
      "gri": 435,
      "gy": 436,
      "lah": 437,
      "andi": 438,
      "por": 439,
      "av": 440,
      "bud": 441,
      "gr": 442,
      "chak": 443,
      "ik": 444,
      "nak": 445,
      "don": 446,
      "ia": 447,
      "chal": 448,
      "sht": 449,
      "ff": 450,
      "nan": 451,
      "pati": 452,
      "bri": 453,
      "des": 454,
      "lin": 455,
      "suk": 456,
      "sun": 457,
      "sc": 458,
      "nat": 459,
      "kun": 460,
      "mur": 461,
      "ic": 462,
      "nas": 463,
      "ess": 464,
      "bur": 465,
      "mun": 466,
      "chh": 467,
      "sah": 468,
      "hai": 469,
      "hak": 470,
      "ste": 471,
      "gya": 472,
      "inder": 473,
      "yuk": 474,
      "sama": 475,
      "ben": 476,
      "gon": 477,
      "anu": 478,
      "kul": 479,
      "kur": 480,
      "ot": 481,
      "rup": 482,
      "we": 483,
      "gyan": 484,
      "ek": 485,
      "wad": 486,
      "lon": 487,
      "nu": 488,
      "las": 489,
      "tur": 490,
      "dak": 491,
      "den": 492,
      "wale": 493,
      "yata": 494,
      "os": 495,
      "iyon": 496,
      "singh": 497,
      "chu": 498,
      "mer": 499,
      "dra": 500,
      "fer": 501,
      "vari": 502,
      "pen": 503,
      "ac": 504,
      "br": 505,
      "chit": 506,
      "ast": 507,
      "chandra": 508,
      "shri": 509,
      "der": 510,
      "has": 511,
      "fal": 512,
      "abhi": 513,
      "kara": 514,
      "wari": 515,
      "mor": 516,
      "dam": 517,
      "athi": 518,
      "put": 519,
      "puri": 520,
      "ts": 521,
      "the": 522,
      "shak": 523,
      "hana": 524,
      "ghar": 525,
      "ble": 526,
      "bhai": 527,
      "tat": 528,
      "vil": 529,
      "ger": 530,
      "zar": 531,
      "bah": 532,
      "ved": 533,
      "ves": 534,
      "yala": 535,
      "sid": 536,
      "swa": 537,
      "ami": 538,
      "asa": 539,
      "pon": 540,
      "cro": 541,
      "ten": 542,
      "nav": 543,
      "giri": 544,
      "ale": 545,
      "sm": 546,
      "sand": 547,
      "pet": 548,
      "rin": 549,
      "ksh": 550,
      "ful": 551,
      "had": 552,
      "kin": 553,
      "sta": 554,
      "bul": 555,
      "ren": 556,
      "rai": 557,
      "em": 558,
      "gaon": 559,
      "garh": 560,
      "bin": 561,
      "kala": 562,
      "yant": 563,
      "ai": 564,
      "ry": 565,
      "hun": 566,
      "bel": 567,
      "hani": 568,
      "sup": 569,
      "net": 570,
      "lat": 571,
      "au": 572,
      "khu": 573,
      "gho": 574,
      "bon": 575,
      "mukh": 576,
      "kak": 577,
      "shiv": 578,
      "yog": 579,
      "ser": 580,
      "tin": 581,
      "sy": 582,
      "dia": 583,
      "vit": 584,
      "ganj": 585,
      "prat": 586,
      "til": 587,
      "bhag": 588,
      "rang": 589,
      "bhe": 590,
      "esh": 591,
      "desh": 592,
      "lok": 593,
      "mus": 594,
      "swar": 595,
      "stan": 596,
      "gul": 597,
      "kit": 598,
      "len": 599,
      "saha": 600,
      "fu": 601,
      "pani": 602,
      "sion": 603,
      "riya": 604,
      "lad": 605,
      "mc": 606,
      "taon": 607,
      "rash": 608,
      "tir": 609,
      "shil": 610,
      "usar": 611,
      "kut": 612,
      "tik": 613,
      "les": 614,
      "pin": 615,
      "bir": 616,
      "pt": 617,
      "sto": 618,
      "ras": 619,
      "ity": 620,
      "kade": 621,
      "yas": 622,
      "ley": 623,
      "ah": 624,
      "vani": 625,
      "than": 626,
      "tis": 627,
      "pai": 628,
      "jat": 629,
      "bor": 630,
      "lai": 631,
      "gram": 632,
      "zo": 633,
      "wara": 634,
      "ner": 635,
      "gari": 636,
      "jas": 637,
      "vali": 638,
      "hir": 639,
      "ush": 640,
      "ler": 641,
      "ria": 642,
      "bara": 643,
      "brah": 644,
      "ung": 645,
      "ling": 646,
      "sis": 647,
      "fy": 648,
      "jak": 649,
      "shra": 650,
      "purna": 651,
      "mam": 652,
      "vri": 653,
      "bit": 654,
      "dri": 655,
      "unga": 656,
      "wani": 657,
      "her": 658,
      "chhi": 659,
      "vik": 660,
      "mil": 661,
      "sham": 662,
      "tran": 663,
      "tiyan": 664,
      "cham": 665,
      "uddin": 666,
      "kir": 667,
      "cs": 668,
      "stha": 669,
      "sit": 670,
      "tas": 671,
      "lia": 672,
      "aram": 673,
      "hen": 674,
      "mati": 675,
      "stra": 676,
      "ze": 677,
      "sul": 678,
      "ps": 679,
      "shah": 680,
      "kot": 681,
      "ds": 682,
      "umi": 683,
      "pada": 684,
      "ure": 685,
      "bari": 686,
      "vati": 687,
      "ft": 688,
      "est": 689,
      "ore": 690,
      "kali": 691,
      "kash": 692,
      "dat": 693,
      "ula": 694,
      "vel": 695,
      "karya": 696,
      "nath": 697,
      "mah": 698,
      "gand": 699,
      "land": 700,
      "jana": 701,
      "py": 702,
      "tiyon": 703,
      "visha": 704,
      "bhat": 705,
      "dy": 706,
      "nit": 707,
      "mut": 708,
      "yachi": 709,
      "gin": 710,
      "mud": 711,
      "sai": 712,
      "sud": 713,
      "yache": 714,
      "dho": 715,
      "mana": 716,
      "bil": 717,
      "ors": 718,
      "jin": 719,
      "jag": 720,
      "khand": 721,
      "fan": 722,
      "logy": 723,
      "ashi": 724,
      "aro": 725,
      "shin": 726,
      "tho": 727,
      "asi": 728,
      "kai": 729,
      "chen": 730,
      "jay": 731,
      "sti": 732,
      "kumar": 733,
      "jon": 734,
      "mein": 735,
      "yukt": 736,
      "maj": 737,
      "my": 738,
      "aki": 739,
      "sant": 740,
      "stri": 741,
      "hiya": 742,
      "dil": 743,
      "ghan": 744,
      "pul": 745,
      "nya": 746,
      "patra": 747,
      "ction": 748,
      "sara": 749,
      "wor": 750,
      "ein": 751,
      "dip": 752,
      "tai": 753,
      "af": 754,
      "ken": 755,
      "gir": 756,
      "mala": 757,
      "ullah": 758,
      "cul": 759,
      "mag": 760,
      "bhak": 761,
      "shit": 762,
      "mai": 763,
      "kes": 764,
      "wada": 765,
      "shya": 766,
      "one": 767,
      "rah": 768,
      "lar": 769,
      "bam": 770,
      "pand": 771,
      "upa": 772,
      "mari": 773,
      "ster": 774,
      "babat": 775,
      "mahi": 776,
      "krish": 777,
      "chari": 778,
      "yega": 779,
      "param": 780,
      "fil": 781,
      "int": 782,
      "bro": 783,
      "lag": 784,
      "nish": 785,
      "ware": 786,
      "ss": 787,
      "pali": 788,
      "ces": 789,
      "dari": 790,
      "mir": 791,
      "but": 792,
      "dro": 793,
      "karta": 794,
      "yane": 795,
      "path": 796,
      "patti": 797,
      "pp": 798,
      "kand": 799,
      "shti": 800,
      "jhan": 801,
      "akh": 802,
      "logi": 803,
      "sinh": 804,
      "med": 805,
      "guru": 806,
      "oro": 807,
      "eri": 808,
      "inter": 809,
      "lis": 810,
      "rav": 811,
      "jhi": 812,
      "ker": 813,
      "gang": 814,
      "nal": 815,
      "fen": 816,
      "mane": 817,
      "jai": 818,
      "cu": 819,
      "hala": 820,
      "sav": 821,
      "nad": 822,
      "ket": 823,
      "anti": 824,
      "bang": 825,
      "kant": 826,
      "aka": 827,
      "jaya": 828,
      "non": 829,
      "may": 830,
      "bag": 831,
      "sas": 832,
      "fat": 833,
      "od": 834,
      "col": 835,
      "star": 836,
      "gud": 837,
      "yana": 838,
      "charya": 839,
      "mano": 840,
      "sil": 841,
      "rud": 842,
      "kta": 843,
      "chat": 844,
      "ary": 845,
      "nag": 846,
      "paryant": 847,
      "ano": 848,
      "mel": 849,
      "tro": 850,
      "yavar": 851,
      "bio": 852,
      "dham": 853,
      "fin": 854,
      "sut": 855,
      "chhat": 856,
      "bali": 857,
      "pasun": 858,
      "badi": 859,
      "uch": 860,
      "bala": 861,
      "vash": 862,
      "lit": 863,
      "sim": 864,
      "cam": 865,
      "vara": 866,
      "panch": 867,
      "devi": 868,
      "baj": 869,
      "ukh": 870,
      "vrit": 871,
      "yacha": 872,
      "gai": 873,
      "lic": 874,
      "dis": 875,
      "sky": 876,
      "tech": 877,
      "dul": 878,
      "ong": 879,
      "raman": 880,
      "cr": 881,
      "use": 882,
      "chho": 883,
      "vay": 884,
      "ppa": 885,
      "uro": 886,
      "tiya": 887,
      "are": 888,
      "tel": 889,
      "shal": 890,
      "vet": 891,
      "pana": 892,
      "sum": 893,
      "ori": 894,
      "oli": 895,
      "nai": 896,
      "aman": 897,
      "yani": 898,
      "ting": 899,
      "ms": 900,
      "ino": 901,
      "ay": 902,
      "hane": 903,
      "von": 904,
      "aj": 905,
      "tit": 906,
      "pam": 907,
      "hra": 908,
      "git": 909,
      "shon": 910,
      "cat": 911,
      "yenge": 912,
      "viro": 913,
      "aniya": 914,
      "baro": 915,
      "nand": 916,
      "yachya": 917,
      "ero": 918,
      "ghu": 919,
      "ted": 920,
      "pres": 921,
      "alo": 922,
      "bagh": 923,
      "hali": 924,
      "fri": 925,
      "ghi": 926,
      "punar": 927,
      "pla": 928,
      "bili": 929,
      "by": 930,
      "jad": 931,
      "rut": 932,
      "gol": 933,
      "ard": 934,
      "ude": 935,
      "mes": 936,
      "tad": 937,
      "sthan": 938,
      "udi": 939,
      "uma": 940,
      "cle": 941,
      "aran": 942,
      "ungi": 943,
      "asha": 944,
      "araj": 945,
      "berg": 946,
      "pant": 947,
      "yad": 948,
      "rum": 949,
      "set": 950,
      "krit": 951,
      "let": 952,
      "shat": 953,
      "uru": 954,
      "lang": 955,
      "wer": 956,
      "can": 957,
      "sel": 958,
      "tor": 959,
      "yogi": 960,
      "buk": 961,
      "ins": 962,
      "uti": 963,
      "chana": 964,
      "bre": 965,
      "mantri": 966,
      "mali": 967,
      "op": 968,
      "bandh": 969,
      "jati": 970,
      "anand": 971,
      "vesh": 972,
      "sch": 973,
      "shet": 974,
      "sub": 975,
      "cl": 976,
      "om": 977,
      "vastha": 978,
      "cas": 979,
      "ene": 980,
      "hri": 981,
      "poly": 982,
      "fic": 983,
      "shik": 984,
      "tant": 985,
      "purvak": 986,
      "sher": 987,
      "baji": 988,
      "madhil": 989,
      "ov": 990,
      "arth": 991,
      "gro": 992,
      "puram": 993,
      "dhak": 994,
      "mis": 995,
      "tya": 996,
      "bandi": 997,
      "karon": 998,
      "ach": 999,
      "tara": 1000,
      "uj": 1001,
      "tia": 1002,
      "vaya": 1003,
      "nor": 1004,
      "xi": 1005,
      "kadun": 1006,
      "esha": 1007,
      "bol": 1008,
      "yati": 1009,
      "trans": 1010,
      "eshwar": 1011,
      "sir": 1012,
      "bana": 1013,
      "kud": 1014,
      "day": 1015,
      "khil": 1016,
      "hand": 1017,
      "pala": 1018,
      "vam": 1019,
      "kheda": 1020,
      "nim": 1021,
      "pran": 1022,
      "ding": 1023,
      "gati": 1024,
      "bet": 1025,
      "atmak": 1026,
      "rama": 1027,
      "jun": 1028,
      "bani": 1029,
      "tala": 1030,
      "enge": 1031,
      "bahu": 1032,
      "jhar": 1033,
      "eli": 1034,
      "bed": 1035,
      "ule": 1036,
      "jyo": 1037,
      "nara": 1038,
      "rani": 1039,
      "tari": 1040,
      "bhumi": 1041,
      "bharat": 1042,
      "az": 1043,
      "gor": 1044,
      "cher": 1045,
      "aut": 1046,
      "rad": 1047,
      "bhut": 1048,
      "sagar": 1049,
      "sed": 1050,
      "cri": 1051,
      "ite": 1052,
      "diya": 1053,
      "peksha": 1054,
      "dhat": 1055,
      "mang": 1056,
      "ret": 1057,
      "sari": 1058,
      "dai": 1059,
      "chhe": 1060,
      "jho": 1061,
      "uki": 1062,
      "hya": 1063,
      "yud": 1064,
      "cc": 1065,
      "pash": 1066,
      "ake": 1067,
      "lav": 1068,
      "eshi": 1069,
      "jivan": 1070,
      "vasi": 1071,
      "cent": 1072,
      "varil": 1073,
      "gas": 1074,
      "push": 1075,
      "ctor": 1076,
      "thar": 1077,
      "anya": 1078,
      "indi": 1079,
      "eld": 1080,
      "him": 1081,
      "uth": 1082,
      "gav": 1083,
      "cap": 1084,
      "cti": 1085,
      "oni": 1086,
      "tab": 1087,
      "ute": 1088,
      "way": 1089,
      "dharm": 1090,
      "super": 1091,
      "tul": 1092,
      "shir": 1093,
      "khal": 1094,
      "ua": 1095,
      "anta": 1096,
      "akon": 1097,
      "vidha": 1098,
      "ruk": 1099,
      "vahi": 1100,
      "pane": 1101,
      "eng": 1102,
      "palli": 1103,
      "under": 1104,
      "ans": 1105,
      "chun": 1106,
      "nau": 1107,
      "uttar": 1108,
      "charan": 1109,
      "vale": 1110,
      "ish": 1111,
      "ral": 1112,
      "kata": 1113,
      "baz": 1114,
      "chet": 1115,
      "sukh": 1116,
      "del": 1117,
      "hast": 1118,
      "pancha": 1119,
      "amar": 1120,
      "ena": 1121,
      "dhari": 1122,
      "sabha": 1123,
      "ence": 1124,
      "vana": 1125,
      "rik": 1126,
      "vis": 1127,
      "cer": 1128,
      "gadi": 1129,
      "ple": 1130,
      "tun": 1131,
      "tum": 1132,
      "fra": 1133,
      "ator": 1134,
      "ako": 1135,
      "meh": 1136,
      "jang": 1137,
      "radi": 1138,
      "asathi": 1139,
      "baha": 1140,
      "sus": 1141,
      "purn": 1142,
      "ges": 1143,
      "mata": 1144,
      "jali": 1145,
      "red": 1146,
      "bhin": 1147,
      "ring": 1148,
      "ric": 1149,
      "sab": 1150,
      "shakti": 1151,
      "chai": 1152,
      "kang": 1153,
      "khur": 1154,
      "ses": 1155,
      "atma": 1156,
      "chitra": 1157,
      "hadi": 1158,
      "shala": 1159,
      "dad": 1160,
      "yang": 1161,
      "yanchya": 1162,
      "hel": 1163,
      "gaj": 1164,
      "pti": 1165,
      "hare": 1166,
      "vidya": 1167,
      "king": 1168,
      "shtha": 1169,
      "wam": 1170,
      "raja": 1171,
      "medi": 1172,
      "dor": 1173,
      "nur": 1174,
      "iz": 1175,
      "ase": 1176,
      "gg": 1177,
      "tes": 1178,
      "hol": 1179,
      "kol": 1180,
      "khad": 1181,
      "wud": 1182,
      "aron": 1183,
      "vada": 1184,
      "maya": 1185,
      "daya": 1186,
      "duk": 1187,
      "fon": 1188,
      "micro": 1189,
      "vasa": 1190,
      "cre": 1191,
      "kund": 1192,
      "vol": 1193,
      "shmi": 1194,
      "adhar": 1195,
      "asam": 1196,
      "muni": 1197,
      "ship": 1198,
      "hor": 1199,
      "bs": 1200,
      "rata": 1201,
      "yari": 1202,
      "shta": 1203,
      "riti": 1204,
      "karmi": 1205,
      "khya": 1206,
      "jani": 1207,
      "kor": 1208,
      "dud": 1209,
      "shana": 1210,
      "vichar": 1211,
      "ey": 1212,
      "vand": 1213,
      "tap": 1214,
      "shad": 1215,
      "fur": 1216,
      "shab": 1217,
      "prem": 1218,
      "fut": 1219,
      "sala": 1220,
      "spe": 1221,
      "yegi": 1222,
      "ski": 1223,
      "hiyon": 1224,
      "adhye": 1225,
      "fir": 1226,
      "pora": 1227,
      "khali": 1228,
      "gn": 1229,
      "shari": 1230,
      "prasad": 1231,
      "ney": 1232,
      "bind": 1233,
      "ola": 1234,
      "bhasha": 1235,
      "rajya": 1236,
      "mini": 1237,
      "raksha": 1238,
      "bata": 1239,
      "tana": 1240,
      "bun": 1241,
      "ks": 1242,
      "back": 1243,
      "ila": 1244,
      "jari": 1245,
      "hav": 1246,
      "kalan": 1247,
      "shuk": 1248,
      "dih": 1249,
      "fran": 1250,
      "dhara": 1251,
      "cur": 1252,
      "vyak": 1253,
      "wasi": 1254,
      "clo": 1255,
      "pol": 1256,
      "ations": 1257,
      "ris": 1258,
      "khari": 1259,
      "prabha": 1260,
      "ev": 1261,
      "rati": 1262,
      "vic": 1263,
      "pil": 1264,
      "wati": 1265,
      "anon": 1266,
      "bl": 1267,
      "dun": 1268,
      "ok": 1269,
      "chon": 1270,
      "chau": 1271,
      "bus": 1272,
      "vikas": 1273,
      "tt": 1274,
      "katha": 1275,
      "air": 1276,
      "dhu": 1277,
      "zu": 1278,
      "bait": 1279,
      "blo": 1280,
      "yya": 1281,
      "kiya": 1282,
      "tem": 1283,
      "kane": 1284,
      "port": 1285,
      "kshet": 1286,
      "kana": 1287,
      "prit": 1288,
      "varun": 1289,
      "dhe": 1290,
      "parak": 1291,
      "nes": 1292,
      "khat": 1293,
      "walon": 1294,
      "zation": 1295,
      "rashtra": 1296,
      "jhu": 1297,
      "jil": 1298,
      "zer": 1299,
      "bes": 1300,
      "uta": 1301,
      "umar": 1302,
      "kel": 1303,
      "pata": 1304,
      "peri": 1305,
      "dwi": 1306,
      "gup": 1307,
      "jane": 1308,
      "poli": 1309,
      "adar": 1310,
      "priya": 1311,
      "wana": 1312,
      "karm": 1313,
      "bach": 1314,
      "ist": 1315,
      "tre": 1316,
      "fun": 1317,
      "sor": 1318,
      "chil": 1319,
      "bility": 1320,
      "jala": 1321,
      "sap": 1322,
      "shth": 1323,
      "kil": 1324,
      "shani": 1325,
      "fit": 1326,
      "padi": 1327,
      "lim": 1328,
      "shiksha": 1329,
      "gum": 1330,
      "haran": 1331,
      "niya": 1332,
      "iti": 1333,
      "sia": 1334,
      "kriya": 1335,
      "grant": 1336,
      "avi": 1337,
      "wak": 1338,
      "chahi": 1339,
      "gair": 1340,
      "cra": 1341,
      "hur": 1342,
      "ous": 1343,
      "run": 1344,
      "spi": 1345,
      "well": 1346,
      "chang": 1347,
      "jet": 1348,
      "hata": 1349,
      "sans": 1350,
      "ira": 1351,
      "kani": 1352,
      "ated": 1353,
      "vidhan": 1354,
      "gane": 1355,
      "adhya": 1356,
      "zam": 1357,
      "hedi": 1358,
      "shor": 1359,
      "ents": 1360,
      "artha": 1361,
      "bhal": 1362,
      "dr": 1363,
      "hati": 1364,
      "kav": 1365,
      "vaj": 1366,
      "pramane": 1367,
      "dara": 1368,
      "kra": 1369,
      "shankar": 1370,
      "ender": 1371,
      "ky": 1372,
      "shastra": 1373,
      "stro": 1374,
      "cel": 1375,
      "andar": 1376,
      "ford": 1377,
      "gani": 1378,
      "anchi": 1379,
      "lab": 1380,
      "dhya": 1381,
      "gali": 1382,
      "mum": 1383,
      "yut": 1384,
      "ville": 1385,
      "ping": 1386,
      "sthi": 1387,
      "gre": 1388,
      "khin": 1389,
      "ped": 1390,
      "chhu": 1391,
      "wai": 1392,
      "glo": 1393,
      "vina": 1394,
      "chur": 1395,
      "pot": 1396,
      "eh": 1397,
      "lut": 1398,
      "vind": 1399,
      "jur": 1400,
      "sana": 1401,
      "vigyan": 1402,
      "ked": 1403,
      "uf": 1404,
      "era": 1405,
      "edi": 1406,
      "eni": 1407,
      "tika": 1408,
      "vira": 1409,
      "mau": 1410,
      "shiya": 1411,
      "satya": 1412,
      "aur": 1413,
      "ela": 1414,
      "lip": 1415,
      "ties": 1416,
      "paras": 1417,
      "dum": 1418,
      "heda": 1419,
      "sol": 1420,
      "ranti": 1421,
      "jhal": 1422,
      "hik": 1423,
      "mahat": 1424,
      "atil": 1425,
      "pach": 1426,
      "sco": 1427,
      "elya": 1428,
      "ili": 1429,
      "atha": 1430,
      "chuk": 1431,
      "itra": 1432,
      "gil": 1433,
      "bla": 1434,
      "guna": 1435,
      "bazi": 1436,
      "pahun": 1437,
      "dani": 1438,
      "line": 1439,
      "vala": 1440,
      "rakh": 1441,
      "manu": 1442,
      "ance": 1443,
      "bazar": 1444,
      "prakash": 1445,
      "wil": 1446,
      "samaj": 1447,
      "pli": 1448,
      "sahit": 1449,
      "darshan": 1450,
      "foto": 1451,
      "rao": 1452,
      "tav": 1453,
      "yanchi": 1454,
      "mic": 1455,
      "plo": 1456,
      "chara": 1457,
      "kavi": 1458,
      "vasiyon": 1459,
      "dut": 1460,
      "logist": 1461,
      "madhya": 1462,
      "kriti": 1463,
      "rish": 1464,
      "ariya": 1465,
      "sik": 1466,
      "win": 1467,
      "anga": 1468,
      "anchya": 1469,
      "als": 1470,
      "bij": 1471,
      "wang": 1472,
      "sau": 1473,
      "bhari": 1474,
      "spar": 1475,
      "alam": 1476,
      "aksha": 1477,
      "mate": 1478,
      "ato": 1479,
      "dig": 1480,
      "chhan": 1481,
      "kham": 1482,
      "buddhi": 1483,
      "jya": 1484,
      "hydro": 1485,
      "shahi": 1486,
      "shika": 1487,
      "lum": 1488,
      "ancha": 1489,
      "thal": 1490,
      "madhun": 1491,
      "ava": 1492,
      "data": 1493,
      "flo": 1494,
      "nama": 1495,
      "dand": 1496,
      "fas": 1497,
      "sani": 1498,
      "tang": 1499,
      "niti": 1500,
      "post": 1501,
      "cto": 1502,
      "unt": 1503,
      "sahi": 1504,
      "mart": 1505,
      "krishna": 1506,
      "iyan": 1507,
      "ora": 1508,
      "head": 1509,
      "kov": 1510,
      "mrit": 1511,
      "rar": 1512,
      "sarva": 1513,
      "hain": 1514,
      "lor": 1515,
      "mri": 1516,
      "labh": 1517,
      "mohan": 1518,
      "vata": 1519,
      "want": 1520,
      "prakar": 1521,
      "bada": 1522,
      "hul": 1523,
      "saj": 1524,
      "shanti": 1525,
      "gs": 1526,
      "yasathi": 1527,
      "mandal": 1528,
      "hay": 1529,
      "dit": 1530,
      "chala": 1531,
      "mp": 1532,
      "sali": 1533,
      "nik": 1534,
      "pradhan": 1535,
      "patri": 1536,
      "indra": 1537,
      "qa": 1538,
      "tahi": 1539,
      "kesh": 1540,
      "mahan": 1541,
      "mangal": 1542,
      "som": 1543,
      "mukhya": 1544,
      "het": 1545,
      "ries": 1546,
      "kalin": 1547,
      "adhyak": 1548,
      "wit": 1549,
      "enti": 1550,
      "elli": 1551,
      "vadiyon": 1552,
      "dana": 1553,
      "gara": 1554,
      "nadi": 1555,
      "dhun": 1556,
      "cket": 1557,
      "vidhi": 1558,
      "hera": 1559,
      "inagar": 1560,
      "bati": 1561,
      "tani": 1562,
      "inf": 1563,
      "thy": 1564,
      "swarup": 1565,
      "gut": 1566,
      "riyon": 1567,
      "ther": 1568,
      "kr": 1569,
      "dus": 1570,
      "shre": 1571,
      "gah": 1572,
      "ganga": 1573,
      "abh": 1574,
      "ddha": 1575,
      "yer": 1576,
      "ory": 1577,
      "khel": 1578,
      "yara": 1579,
      "janon": 1580,
      "khana": 1581,
      "fre": 1582,
      "ox": 1583,
      "gate": 1584,
      "aria": 1585,
      "tele": 1586,
      "kamal": 1587,
      "stal": 1588,
      "ments": 1589,
      "over": 1590,
      "field": 1591,
      "kuk": 1592,
      "yun": 1593,
      "shram": 1594,
      "ingh": 1595,
      "upi": 1596,
      "cin": 1597,
      "ology": 1598,
      "sain": 1599,
      "saman": 1600,
      "kend": 1601,
      "ming": 1602,
      "kus": 1603,
      "wn": 1604,
      "bhad": 1605,
      "bhaga": 1606,
      "kati": 1607,
      "pers": 1608,
      "rach": 1609,
      "ston": 1610,
      "mara": 1611,
      "jivi": 1612,
      "heli": 1613,
      "sex": 1614,
      "baddal": 1615,
      "fad": 1616,
      "ig": 1617,
      "ray": 1618,
      "nil": 1619,
      "kshan": 1620,
      "atva": 1621,
      "shyam": 1622,
      "mid": 1623,
      "gala": 1624,
      "pus": 1625,
      "vihin": 1626,
      "shud": 1627,
      "ative": 1628,
      "gel": 1629,
      "hum": 1630,
      "rana": 1631,
      "chauk": 1632,
      "upar": 1633,
      "kaon": 1634,
      "pir": 1635,
      "apar": 1636,
      "anche": 1637,
      "kaya": 1638,
      "ega": 1639,
      "liya": 1640,
      "yancha": 1641,
      "bhaj": 1642,
      "agni": 1643,
      "tics": 1644,
      "ning": 1645,
      "str": 1646,
      "mik": 1647,
      "rag": 1648,
      "multi": 1649,
      "cla": 1650,
      "kram": 1651,
      "wah": 1652,
      "sn": 1653,
      "sp": 1654,
      "chcha": 1655,
      "kau": 1656,
      "key": 1657,
      "dhon": 1658,
      "meter": 1659,
      "zed": 1660,
      "hira": 1661,
      "karo": 1662,
      "yanche": 1663,
      "chik": 1664,
      "purva": 1665,
      "prash": 1666,
      "rail": 1667,
      "karak": 1668,
      "cker": 1669,
      "adhikari": 1670,
      "osh": 1671,
      "ef": 1672,
      "atan": 1673,
      "alan": 1674,
      "asan": 1675,
      "elo": 1676,
      "janak": 1677,
      "athan": 1678,
      "mukhi": 1679,
      "tuk": 1680,
      "tali": 1681,
      "cial": 1682,
      "jyoti": 1683,
      "cum": 1684,
      "dir": 1685,
      "mantr": 1686,
      "chir": 1687,
      "antra": 1688,
      "samu": 1689,
      "hua": 1690,
      "hada": 1691,
      "vardhan": 1692,
      "seva": 1693,
      "madi": 1694,
      "sthal": 1695,
      "alaya": 1696,
      "mila": 1697,
      "tham": 1698,
      "dang": 1699,
      "less": 1700,
      "uman": 1701,
      "raha": 1702,
      "shen": 1703,
      "sami": 1704,
      "daron": 1705,
      "premi": 1706,
      "apa": 1707,
      "jen": 1708,
      "angi": 1709,
      "bis": 1710,
      "bodh": 1711,
      "surya": 1712,
      "wo": 1713,
      "lakh": 1714,
      "hus": 1715,
      "purush": 1716,
      "bhara": 1717,
      "power": 1718,
      "bakh": 1719,
      "que": 1720,
      "aru": 1721,
      "inda": 1722,
      "bab": 1723,
      "cos": 1724,
      "ness": 1725,
      "pud": 1726,
      "rol": 1727,
      "ith": 1728,
      "kis": 1729,
      "mot": 1730,
      "beh": 1731,
      "jum": 1732,
      "ayo": 1733,
      "jhe": 1734,
      "qi": 1735,
      "ug": 1736,
      "chor": 1737,
      "yanantar": 1738,
      "khedi": 1739,
      "bhavan": 1740,
      "parivar": 1741,
      "putra": 1742,
      "art": 1743,
      "chatur": 1744,
      "dah": 1745,
      "det": 1746,
      "huk": 1747,
      "hindu": 1748,
      "swi": 1749,
      "kadi": 1750,
      "rahi": 1751,
      "tah": 1752,
      "karana": 1753,
      "endu": 1754,
      "stein": 1755,
      "baddh": 1756,
      "fos": 1757,
      "yalaya": 1758,
      "kup": 1759,
      "yag": 1760,
      "ese": 1761,
      "jab": 1762,
      "jor": 1763,
      "ande": 1764,
      "hot": 1765,
      "dwar": 1766,
      "ub": 1767,
      "une": 1768,
      "jiv": 1769,
      "lekh": 1770,
      "kale": 1771,
      "guda": 1772,
      "jul": 1773,
      "ravi": 1774,
      "sts": 1775,
      "vah": 1776,
      "miya": 1777,
      "aya": 1778,
      "laya": 1779,
      "say": 1780,
      "samband": 1781,
      "dol": 1782,
      "grast": 1783,
      "kath": 1784,
      "vers": 1785,
      "riyan": 1786,
      "mia": 1787,
      "graf": 1788,
      "grah": 1789,
      "khane": 1790,
      "iah": 1791,
      "tru": 1792,
      "vu": 1793,
      "ere": 1794,
      "naya": 1795,
      "cil": 1796,
      "purwa": 1797,
      "marg": 1798,
      "swas": 1799,
      "fari": 1800,
      "kshi": 1801,
      "thu": 1802,
      "ella": 1803,
      "new": 1804,
      "og": 1805,
      "ona": 1806,
      "andan": 1807,
      "bhadra": 1808,
      "itya": 1809,
      "kach": 1810,
      "utha": 1811,
      "apra": 1812,
      "haz": 1813,
      "hini": 1814,
      "tain": 1815,
      "teri": 1816,
      "shesh": 1817,
      "form": 1818,
      "mb": 1819,
      "yali": 1820,
      "aly": 1821,
      "chhin": 1822,
      "engi": 1823,
      "main": 1824,
      "pah": 1825,
      "alya": 1826,
      "deh": 1827,
      "jim": 1828,
      "plas": 1829,
      "chakra": 1830,
      "bant": 1831,
      "nis": 1832,
      "paha": 1833,
      "press": 1834,
      "yengi": 1835,
      "water": 1836,
      "dc": 1837,
      "fla": 1838,
      "vahan": 1839,
      "geo": 1840,
      "yatra": 1841,
      "stam": 1842,
      "dav": 1843,
      "coun": 1844,
      "sey": 1845,
      "chane": 1846,
      "box": 1847,
      "inam": 1848,
      "chuna": 1849,
      "kart": 1850,
      "babu": 1851,
      "dash": 1852,
      "lesh": 1853,
      "moh": 1854,
      "uka": 1855,
      "vr": 1856,
      "arak": 1857,
      "asya": 1858,
      "pic": 1859,
      "cry": 1860,
      "vini": 1861,
      "hita": 1862,
      "via": 1863,
      "mahara": 1864,
      "ded": 1865,
      "mita": 1866,
      "mol": 1867,
      "kartaon": 1868,
      "mod": 1869,
      "hab": 1870,
      "shun": 1871,
      "dio": 1872,
      "diyan": 1873,
      "shiyon": 1874,
      "ataon": 1875,
      "virud": 1876,
      "pto": 1877,
      "tach": 1878,
      "diyon": 1879,
      "saun": 1880,
      "puru": 1881,
      "varan": 1882,
      "bhul": 1883,
      "hr": 1884,
      "mund": 1885,
      "oge": 1886,
      "lekha": 1887,
      "sharan": 1888,
      "bru": 1889,
      "cus": 1890,
      "gana": 1891,
      "vane": 1892,
      "bia": 1893,
      "ghum": 1894,
      "fai": 1895,
      "logical": 1896,
      "abha": 1897,
      "fed": 1898,
      "nin": 1899,
      "rab": 1900,
      "naz": 1901,
      "ania": 1902,
      "dush": 1903,
      "gadh": 1904,
      "fication": 1905,
      "kranti": 1906,
      "shali": 1907,
      "kim": 1908,
      "ching": 1909,
      "blu": 1910,
      "pes": 1911,
      "suna": 1912,
      "atri": 1913,
      "taj": 1914,
      "baba": 1915,
      "yantra": 1916,
      "syn": 1917,
      "out": 1918,
      "spa": 1919,
      "karam": 1920,
      "utar": 1921,
      "samar": 1922,
      "grih": 1923,
      "khon": 1924,
      "numa": 1925,
      "zon": 1926,
      "hiyan": 1927,
      "mash": 1928,
      "pay": 1929,
      "nati": 1930,
      "ui": 1931,
      "anuk": 1932,
      "karyak": 1933,
      "dekhil": 1934,
      "prata": 1935,
      "elect": 1936,
      "barobar": 1937,
      "gada": 1938,
      "lil": 1939,
      "antara": 1940,
      "bandhan": 1941,
      "amo": 1942,
      "nuk": 1943,
      "nira": 1944,
      "giya": 1945,
      "varsha": 1946,
      "mukt": 1947,
      "atin": 1948,
      "ings": 1949,
      "alis": 1950,
      "nel": 1951,
      "rus": 1952,
      "rid": 1953,
      "esi": 1954,
      "chikit": 1955,
      "eti": 1956,
      "gly": 1957,
      "wane": 1958,
      "zan": 1959,
      "tive": 1960,
      "work": 1961,
      "ob": 1962,
      "uun": 1963,
      "dik": 1964,
      "dikha": 1965,
      "tex": 1966,
      "yoj": 1967,
      "cli": 1968,
      "anus": 1969,
      "shila": 1970,
      "boli": 1971,
      "ova": 1972,
      "pang": 1973,
      "sr": 1974,
      "kare": 1975,
      "stru": 1976,
      "dag": 1977,
      "lot": 1978,
      "bank": 1979,
      "bhakti": 1980,
      "gus": 1981,
      "jama": 1982,
      "mahal": 1983,
      "led": 1984,
      "kendra": 1985,
      "odi": 1986,
      "vent": 1987,
      "ery": 1988,
      "mann": 1989,
      "hath": 1990,
      "ght": 1991,
      "ghun": 1992,
      "paksha": 1993,
      "web": 1994,
      "luk": 1995,
      "yate": 1996,
      "gaya": 1997,
      "prasha": 1998,
      "vritti": 1999,
      "pel": 2000,
      "aton": 2001,
      "vibha": 2002,
      "shai": 2003,
      "bhau": 2004,
      "upas": 2005,
      "vansh": 2006,
      "yik": 2007,
      "mandi": 2008,
      "auto": 2009,
      "oti": 2010,
      "lay": 2011,
      "udh": 2012,
      "siya": 2013,
      "sya": 2014,
      "yein": 2015,
      "cks": 2016,
      "vyan": 2017,
      "alon": 2018,
      "cour": 2019,
      "barach": 2020,
      "narayan": 2021,
      "anna": 2022,
      "gaura": 2023,
      "anagar": 2024,
      "grafy": 2025,
      "eva": 2026,
      "tiru": 2027,
      "kay": 2028,
      "ants": 2029,
      "tej": 2030,
      "swam": 2031,
      "mono": 2032,
      "chhal": 2033,
      "arayan": 2034,
      "bid": 2035,
      "yug": 2036,
      "long": 2037,
      "nata": 2038,
      "sati": 2039,
      "yash": 2040,
      "rod": 2041,
      "virodhi": 2042,
      "mait": 2043,
      "rot": 2044,
      "fes": 2045,
      "nut": 2046,
      "sada": 2047,
      "att": 2048,
      "ame": 2049,
      "andol": 2050,
      "god": 2051,
      "khor": 2052,
      "paiki": 2053,
      "vijay": 2054,
      "ete": 2055,
      "pav": 2056,
      "sarvas": 2057,
      "sundar": 2058,
      "vishayi": 2059,
      "tantra": 2060,
      "agra": 2061,
      "if": 2062,
      "ls": 2063,
      "pc": 2064,
      "vija": 2065,
      "puran": 2066,
      "kashi": 2067,
      "bli": 2068,
      "uz": 2069,
      "raya": 2070,
      "lapur": 2071,
      "manav": 2072,
      "khud": 2073,
      "jara": 2074,
      "atta": 2075,
      "hem": 2076,
      "prasan": 2077,
      "khul": 2078,
      "skar": 2079,
      "shant": 2080,
      "nikal": 2081,
      "gopal": 2082,
      "badha": 2083,
      "dant": 2084,
      "wel": 2085,
      "yn": 2086,
      "ches": 2087,
      "asu": 2088,
      "khun": 2089,
      "tol": 2090,
      "tut": 2091,
      "kama": 2092,
      "barobarach": 2093,
      "bb": 2094,
      "ates": 2095,
      "lap": 2096,
      "haron": 2097,
      "udra": 2098,
      "jir": 2099,
      "sem": 2100,
      "badal": 2101,
      "chandi": 2102,
      "ics": 2103,
      "dhin": 2104,
      "kate": 2105,
      "nakar": 2106,
      "sind": 2107,
      "liyan": 2108,
      "mac": 2109,
      "atic": 2110,
      "modi": 2111,
      "vastu": 2112,
      "fle": 2113,
      "laga": 2114,
      "sty": 2115,
      "paksh": 2116,
      "ghati": 2117,
      "burg": 2118,
      "cing": 2119,
      "oc": 2120,
      "shwari": 2121,
      "bhum": 2122,
      "fone": 2123,
      "gli": 2124,
      "kshe": 2125,
      "arya": 2126,
      "shthi": 2127,
      "kaen": 2128,
      "upal": 2129,
      "rupa": 2130,
      "flu": 2131,
      "eno": 2132,
      "vie": 2133,
      "andh": 2134,
      "bacha": 2135,
      "kab": 2136,
      "mantra": 2137,
      "alai": 2138,
      "bhed": 2139,
      "fus": 2140,
      "vidh": 2141,
      "jagat": 2142,
      "purv": 2143,
      "mem": 2144,
      "charit": 2145,
      "mitra": 2146,
      "kshetra": 2147,
      "mr": 2148,
      "rant": 2149,
      "shul": 2150,
      "wahi": 2151,
      "ball": 2152,
      "bhushan": 2153,
      "epi": 2154,
      "amrit": 2155,
      "kavya": 2156,
      "pap": 2157,
      "holi": 2158,
      "moti": 2159,
      "vanshi": 2160,
      "mula": 2161,
      "jata": 2162,
      "kya": 2163,
      "raji": 2164,
      "tay": 2165,
      "karne": 2166,
      "stak": 2167,
      "deo": 2168,
      "deva": 2169,
      "koti": 2170,
      "laksh": 2171,
      "nari": 2172,
      "oda": 2173,
      "sne": 2174,
      "gia": 2175,
      "sena": 2176,
      "ich": 2177,
      "jant": 2178,
      "zul": 2179,
      "bya": 2180,
      "get": 2181,
      "tet": 2182,
      "tim": 2183,
      "brahma": 2184,
      "chim": 2185,
      "kish": 2186,
      "basa": 2187,
      "cular": 2188,
      "gata": 2189,
      "khara": 2190,
      "vate": 2191,
      "yl": 2192,
      "chri": 2193,
      "mahe": 2194,
      "kalyan": 2195,
      "card": 2196,
      "more": 2197,
      "inte": 2198,
      "max": 2199,
      "yojan": 2200,
      "veli": 2201,
      "madhu": 2202,
      "mato": 2203,
      "lur": 2204,
      "vachan": 2205,
      "bhagya": 2206,
      "janya": 2207,
      "bhim": 2208,
      "math": 2209,
      "halli": 2210,
      "amadhye": 2211,
      "lach": 2212,
      "alia": 2213,
      "dharam": 2214,
      "wade": 2215,
      "zad": 2216,
      "chalak": 2217,
      "nagari": 2218,
      "mant": 2219,
      "sobat": 2220,
      "unach": 2221,
      "rel": 2222,
      "sata": 2223,
      "anan": 2224,
      "varon": 2225,
      "board": 2226,
      "bhand": 2227,
      "bhuk": 2228,
      "griha": 2229,
      "cut": 2230,
      "fak": 2231,
      "ib": 2232,
      "nang": 2233,
      "vrat": 2234,
      "chani": 2235,
      "ency": 2236,
      "vich": 2237,
      "sambha": 2238,
      "karita": 2239,
      "gade": 2240,
      "endo": 2241,
      "nava": 2242,
      "sig": 2243,
      "prin": 2244,
      "veri": 2245,
      "vashi": 2246,
      "taran": 2247,
      "cia": 2248,
      "tions": 2249,
      "gami": 2250,
      "jud": 2251,
      "jhin": 2252,
      "sth": 2253,
      "dekh": 2254,
      "prad": 2255,
      "anth": 2256,
      "dhana": 2257,
      "yaksh": 2258,
      "vrid": 2259,
      "eco": 2260,
      "gund": 2261,
      "ns": 2262,
      "oi": 2263,
      "asar": 2264,
      "bac": 2265,
      "mark": 2266,
      "kariyon": 2267,
      "hyper": 2268,
      "kah": 2269,
      "roj": 2270,
      "shish": 2271,
      "ward": 2272,
      "ating": 2273,
      "unda": 2274,
      "lau": 2275,
      "gira": 2276,
      "lakshmi": 2277,
      "hate": 2278,
      "jahan": 2279,
      "mish": 2280,
      "sura": 2281,
      "plan": 2282,
      "ardh": 2283,
      "chali": 2284,
      "edar": 2285,
      "bot": 2286,
      "thon": 2287,
      "egi": 2288,
      "fel": 2289,
      "hila": 2290,
      "chel": 2291,
      "vive": 2292,
      "zia": 2293,
      "scri": 2294,
      "vinder": 2295,
      "amal": 2296,
      "aksh": 2297,
      "mahar": 2298,
      "gudi": 2299,
      "kush": 2300,
      "triya": 2301,
      "kia": 2302,
      "khet": 2303,
      "jot": 2304,
      "swat": 2305,
      "nyay": 2306,
      "cine": 2307,
      "dali": 2308,
      "uram": 2309,
      "park": 2310,
      "ational": 2311,
      "sandar": 2312,
      "omi": 2313,
      "atya": 2314,
      "andal": 2315,
      "mach": 2316,
      "bahi": 2317,
      "bhup": 2318,
      "haj": 2319,
      "sachi": 2320,
      "bham": 2321,
      "ange": 2322,
      "mos": 2323,
      "ogi": 2324,
      "zim": 2325,
      "table": 2326,
      "maz": 2327,
      "shahar": 2328,
      "varg": 2329,
      "khai": 2330,
      "kanchi": 2331,
      "bale": 2332,
      "vyakti": 2333,
      "cit": 2334,
      "fl": 2335,
      "hud": 2336,
      "aten": 2337,
      "dab": 2338,
      "sampra": 2339,
      "dhata": 2340,
      "matri": 2341,
      "ahi": 2342,
      "bum": 2343,
      "ei": 2344,
      "num": 2345,
      "thin": 2346,
      "uon": 2347,
      "vant": 2348,
      "dera": 2349,
      "bhuti": 2350,
      "grin": 2351,
      "fate": 2352,
      "anup": 2353,
      "chalan": 2354,
      "udar": 2355,
      "zai": 2356,
      "vishwa": 2357,
      "ctive": 2358,
      "fr": 2359,
      "tva": 2360,
      "hos": 2361,
      "heri": 2362,
      "hariya": 2363,
      "vyavastha": 2364,
      "wamy": 2365,
      "ghal": 2366,
      "ny": 2367,
      "wand": 2368,
      "bahar": 2369,
      "purvi": 2370,
      "ghus": 2371,
      "dd": 2372,
      "fro": 2373,
      "bay": 2374,
      "house": 2375,
      "pradesh": 2376,
      "waj": 2377,
      "waya": 2378,
      "yoga": 2379,
      "shot": 2380,
      "ec": 2381,
      "gna": 2382,
      "anant": 2383,
      "arthi": 2384,
      "navar": 2385,
      "gita": 2386,
      "miti": 2387,
      "sarv": 2388,
      "dharma": 2389,
      "vadhi": 2390,
      "respon": 2391,
      "hypo": 2392,
      "gandhi": 2393,
      "chhatra": 2394,
      "gama": 2395,
      "jut": 2396,
      "akal": 2397,
      "karma": 2398,
      "list": 2399,
      "gaur": 2400,
      "angan": 2401,
      "pm": 2402,
      "adha": 2403,
      "ambi": 2404,
      "stone": 2405,
      "ulu": 2406,
      "gau": 2407,
      "sima": 2408,
      "hori": 2409,
      "kiyon": 2410,
      "sevak": 2411,
      "sankh": 2412,
      "hindi": 2413,
      "sath": 2414,
      "ress": 2415,
      "khush": 2416,
      "techno": 2417,
      "ons": 2418,
      "ado": 2419,
      "uke": 2420,
      "jiya": 2421,
      "dhyan": 2422,
      "thak": 2423,
      "sudhar": 2424,
      "anusar": 2425,
      "taya": 2426,
      "miyon": 2427,
      "khila": 2428,
      "gl": 2429,
      "rul": 2430,
      "sadi": 2431,
      "zal": 2432,
      "mayi": 2433,
      "samor": 2434,
      "khas": 2435,
      "agri": 2436,
      "wasiyon": 2437,
      "desha": 2438,
      "uva": 2439,
      "rian": 2440,
      "dila": 2441,
      "daha": 2442,
      "sane": 2443,
      "sankal": 2444,
      "indu": 2445,
      "dura": 2446,
      "qui": 2447,
      "oh": 2448,
      "uchi": 2449,
      "zin": 2450,
      "karna": 2451,
      "jayan": 2452,
      "adevi": 2453,
      "bahadur": 2454,
      "fol": 2455,
      "muna": 2456,
      "rio": 2457,
      "sive": 2458,
      "jhun": 2459,
      "nyaya": 2460,
      "gni": 2461,
      "hans": 2462,
      "sahe": 2463,
      "ros": 2464,
      "parti": 2465,
      "khala": 2466,
      "bhon": 2467,
      "mada": 2468,
      "bandha": 2469,
      "pith": 2470,
      "asah": 2471,
      "dup": 2472,
      "ghe": 2473,
      "kraman": 2474,
      "mail": 2475,
      "kiran": 2476,
      "goda": 2477,
      "bhun": 2478,
      "bade": 2479,
      "cru": 2480,
      "ota": 2481,
      "ual": 2482,
      "ving": 2483,
      "teh": 2484,
      "prakarani": 2485,
      "gla": 2486,
      "pent": 2487,
      "rath": 2488,
      "navi": 2489,
      "vaye": 2490,
      "ariyan": 2491,
      "gujar": 2492,
      "matra": 2493,
      "murti": 2494,
      "whi": 2495,
      "liyon": 2496,
      "kura": 2497,
      "dhani": 2498,
      "fysi": 2499,
      "fali": 2500,
      "smar": 2501,
      "yur": 2502,
      "lash": 2503,
      "mira": 2504,
      "varti": 2505,
      "bharati": 2506,
      "bandhu": 2507,
      "uniya": 2508,
      "siddha": 2509,
      "cast": 2510,
      "ez": 2511,
      "sna": 2512,
      "yai": 2513,
      "yashi": 2514,
      "astha": 2515,
      "yong": 2516,
      "varam": 2517,
      "sula": 2518,
      "dhand": 2519,
      "saro": 2520,
      "tami": 2521,
      "fs": 2522,
      "oid": 2523,
      "rasa": 2524,
      "shed": 2525,
      "pacha": 2526,
      "mili": 2527,
      "ders": 2528,
      "ekar": 2529,
      "ters": 2530,
      "wet": 2531,
      "giyon": 2532,
      "kova": 2533,
      "suri": 2534,
      "meri": 2535,
      "cian": 2536,
      "dilli": 2537,
      "mahila": 2538,
      "viruddh": 2539,
      "ank": 2540,
      "bav": 2541,
      "utra": 2542,
      "pret": 2543,
      "ctur": 2544,
      "adhikar": 2545,
      "uria": 2546,
      "uga": 2547,
      "anam": 2548,
      "arat": 2549,
      "pathi": 2550,
      "ranath": 2551,
      "bula": 2552,
      "not": 2553,
      "vaish": 2554,
      "bhoj": 2555,
      "pratini": 2556,
      "cen": 2557,
      "usa": 2558,
      "hami": 2559,
      "rom": 2560,
      "neuro": 2561,
      "dhum": 2562,
      "sangit": 2563,
      "vidyar": 2564,
      "hut": 2565,
      "atun": 2566,
      "shay": 2567,
      "siri": 2568,
      "yojana": 2569,
      "khani": 2570,
      "shubh": 2571,
      "ska": 2572,
      "ananda": 2573,
      "vijaya": 2574,
      "stu": 2575,
      "manon": 2576,
      "jawa": 2577,
      "pate": 2578,
      "avas": 2579,
      "kti": 2580,
      "akan": 2581,
      "undi": 2582,
      "lahi": 2583,
      "hang": 2584,
      "sabh": 2585,
      "vaid": 2586,
      "hom": 2587,
      "sanstha": 2588,
      "dware": 2589,
      "nani": 2590,
      "tata": 2591,
      "vy": 2592,
      "rich": 2593,
      "naj": 2594,
      "ariyon": 2595,
      "jik": 2596,
      "dom": 2597,
      "peti": 2598,
      "ffer": 2599,
      "braj": 2600,
      "ced": 2601,
      "dwara": 2602,
      "ult": 2603,
      "sava": 2604,
      "ets": 2605,
      "panna": 2606,
      "thiru": 2607,
      "euro": 2608,
      "kro": 2609,
      "shara": 2610,
      "adhan": 2611,
      "lela": 2612,
      "upani": 2613,
      "bert": 2614,
      "sangh": 2615,
      "jhul": 2616,
      "swayam": 2617,
      "rand": 2618,
      "ators": 2619,
      "mahin": 2620,
      "shastri": 2621,
      "log": 2622,
      "fied": 2623,
      "bela": 2624,
      "bhit": 2625,
      "khed": 2626,
      "dre": 2627,
      "ld": 2628,
      "wol": 2629,
      "adu": 2630,
      "chum": 2631,
      "taen": 2632,
      "kosh": 2633,
      "padan": 2634,
      "thit": 2635,
      "astro": 2636,
      "colle": 2637,
      "nana": 2638,
      "arun": 2639,
      "shtra": 2640,
      "dic": 2641,
      "shasan": 2642,
      "stre": 2643,
      "sach": 2644,
      "dayi": 2645,
      "praman": 2646,
      "tein": 2647,
      "sev": 2648,
      "sevi": 2649,
      "saran": 2650,
      "siddhi": 2651,
      "kutum": 2652,
      "majra": 2653,
      "shikshan": 2654,
      "akade": 2655,
      "chap": 2656,
      "baja": 2657,
      "kahi": 2658,
      "khadi": 2659,
      "vishvas": 2660,
      "sutra": 2661,
      "clu": 2662,
      "of": 2663,
      "uji": 2664,
      "ys": 2665,
      "yor": 2666,
      "zing": 2667,
      "rim": 2668,
      "udha": 2669,
      "roh": 2670,
      "vyava": 2671,
      "juri": 2672,
      "abi": 2673,
      "sli": 2674,
      "yin": 2675,
      "zen": 2676,
      "ashak": 2677,
      "tip": 2678,
      "ular": 2679,
      "savi": 2680,
      "dex": 2681,
      "bom": 2682,
      "dhur": 2683,
      "pitha": 2684,
      "rupi": 2685,
      "petro": 2686,
      "lun": 2687,
      "usi": 2688,
      "yot": 2689,
      "unia": 2690,
      "mulak": 2691,
      "sund": 2692,
      "yagya": 2693,
      "bail": 2694,
      "jia": 2695,
      "jahi": 2696,
      "paryat": 2697,
      "baram": 2698,
      "nali": 2699,
      "atar": 2700,
      "regi": 2701,
      "aniyan": 2702,
      "badh": 2703,
      "kada": 2704,
      "mandir": 2705,
      "brid": 2706,
      "avar": 2707,
      "aero": 2708,
      "tane": 2709,
      "bhagi": 2710,
      "anir": 2711,
      "bik": 2712,
      "newala": 2713,
      "tori": 2714,
      "pend": 2715,
      "tus": 2716,
      "alu": 2717,
      "amba": 2718,
      "asana": 2719,
      "tek": 2720,
      "ratna": 2721,
      "ghad": 2722,
      "moni": 2723,
      "gener": 2724,
      "mission": 2725,
      "iso": 2726,
      "jing": 2727,
      "ned": 2728,
      "zak": 2729,
      "rap": 2730,
      "riksha": 2731,
      "hard": 2732,
      "lian": 2733,
      "esar": 2734,
      "nawa": 2735,
      "pahi": 2736,
      "jain": 2737,
      "parya": 2738,
      "posi": 2739,
      "puli": 2740,
      "govind": 2741,
      "kher": 2742,
      "fire": 2743,
      "top": 2744,
      "mukti": 2745,
      "drishti": 2746,
      "uchcha": 2747,
      "karmiyon": 2748,
      "pratap": 2749,
      "indo": 2750,
      "chul": 2751,
      "labha": 2752,
      "kaha": 2753,
      "patni": 2754,
      "puja": 2755,
      "dhal": 2756,
      "film": 2757,
      "eb": 2758,
      "ishwar": 2759,
      "ars": 2760,
      "manas": 2761,
      "shire": 2762,
      "pashu": 2763,
      "lock": 2764,
      "piya": 2765,
      "janit": 2766,
      "rity": 2767,
      "jod": 2768,
      "takar": 2769,
      "vedan": 2770,
      "matic": 2771,
      "varach": 2772,
      "agar": 2773,
      "wid": 2774,
      "harsh": 2775,
      "satta": 2776,
      "guj": 2777,
      "valon": 2778,
      "ller": 2779,
      "khurd": 2780,
      "wakar": 2781,
      "rashi": 2782,
      "yadi": 2783,
      "kaj": 2784,
      "jah": 2785,
      "garbha": 2786,
      "got": 2787,
      "pally": 2788,
      "radha": 2789,
      "ines": 2790,
      "yah": 2791,
      "tish": 2792,
      "laj": 2793,
      "kap": 2794,
      "sec": 2795,
      "hathi": 2796,
      "mesh": 2797,
      "bare": 2798,
      "joy": 2799,
      "punji": 2800,
      "fc": 2801,
      "mina": 2802,
      "zil": 2803,
      "rishi": 2804,
      "lila": 2805,
      "rog": 2806,
      "bhavi": 2807,
      "paro": 2808,
      "ranga": 2809,
      "thiyon": 2810,
      "sadhan": 2811,
      "gupta": 2812,
      "sthiti": 2813,
      "achar": 2814,
      "eswar": 2815,
      "bhavish": 2816,
      "nia": 2817,
      "part": 2818,
      "daran": 2819,
      "dhit": 2820,
      "vyav": 2821,
      "cts": 2822,
      "vakar": 2823,
      "bhog": 2824,
      "budh": 2825,
      "chhut": 2826,
      "bane": 2827,
      "fud": 2828,
      "nen": 2829,
      "sla": 2830,
      "tama": 2831,
      "alak": 2832,
      "arai": 2833,
      "lov": 2834,
      "tera": 2835,
      "mush": 2836,
      "dharan": 2837,
      "ism": 2838,
      "farma": 2839,
      "yukta": 2840,
      "panchayat": 2841,
      "cell": 2842,
      "kshar": 2843,
      "nus": 2844,
      "zz": 2845,
      "rasht": 2846,
      "ito": 2847,
      "dayak": 2848,
      "prer": 2849,
      "meta": 2850,
      "soli": 2851,
      "padak": 2852,
      "jog": 2853,
      "swe": 2854,
      "ging": 2855,
      "nala": 2856,
      "ole": 2857,
      "puna": 2858,
      "haya": 2859,
      "his": 2860,
      "shur": 2861,
      "amma": 2862,
      "ril": 2863,
      "dim": 2864,
      "saf": 2865,
      "sarkar": 2866,
      "thor": 2867,
      "kanche": 2868,
      "shubha": 2869,
      "view": 2870,
      "aura": 2871,
      "rate": 2872,
      "vendra": 2873,
      "xy": 2874,
      "anen": 2875,
      "hapur": 2876,
      "karun": 2877,
      "ulo": 2878,
      "ulak": 2879,
      "jita": 2880,
      "aniyon": 2881,
      "kilo": 2882,
      "yev": 2883,
      "goli": 2884,
      "keshwar": 2885,
      "gula": 2886,
      "vot": 2887,
      "pore": 2888,
      "pratya": 2889,
      "shetra": 2890,
      "dvi": 2891,
      "kt": 2892,
      "nun": 2893,
      "pd": 2894,
      "akshar": 2895,
      "kacha": 2896,
      "ukhi": 2897,
      "pain": 2898,
      "bim": 2899,
      "parvat": 2900,
      "kom": 2901,
      "hinta": 2902,
      "ctors": 2903,
      "tional": 2904,
      "brij": 2905,
      "lene": 2906,
      "brahman": 2907,
      "techni": 2908,
      "bell": 2909,
      "city": 2910,
      "dala": 2911,
      "tila": 2912,
      "tical": 2913,
      "stat": 2914,
      "koi": 2915,
      "atah": 2916,
      "garon": 2917,
      "ghur": 2918,
      "kami": 2919,
      "vyavas": 2920,
      "vishva": 2921,
      "avash": 2922,
      "gran": 2923,
      "jer": 2924,
      "ladi": 2925,
      "sl": 2926,
      "smart": 2927,
      "tail": 2928,
      "haram": 2929,
      "shim": 2930,
      "resh": 2931,
      "bhur": 2932,
      "bhus": 2933,
      "soci": 2934,
      "gale": 2935,
      "ture": 2936,
      "bindu": 2937,
      "mumbai": 2938,
      "saundar": 2939,
      "cali": 2940,
      "eu": 2941,
      "wen": 2942,
      "wind": 2943,
      "atra": 2944,
      "hart": 2945,
      "lish": 2946,
      "bhava": 2947,
      "rekha": 2948,
      "jaga": 2949,
      "purti": 2950,
      "tey": 2951,
      "newale": 2952,
      "tod": 2953,
      "kanchya": 2954,
      "dale": 2955,
      "nano": 2956,
      "samajha": 2957,
      "eka": 2958,
      "lata": 2959,
      "slo": 2960,
      "chait": 2961,
      "cot": 2962,
      "brand": 2963,
      "aud": 2964,
      "gent": 2965,
      "pya": 2966,
      "west": 2967,
      "inga": 2968,
      "adan": 2969,
      "asur": 2970,
      "bhas": 2971,
      "eth": 2972,
      "dahi": 2973,
      "anto": 2974,
      "sankhya": 2975,
      "suraj": 2976,
      "palan": 2977,
      "mukha": 2978,
      "antah": 2979,
      "inon": 2980,
      "chus": 2981,
      "divya": 2982,
      "chaun": 2983,
      "shast": 2984,
      "hed": 2985,
      "prakal": 2986,
      "upan": 2987,
      "pathy": 2988,
      "tom": 2989,
      "darshi": 2990,
      "master": 2991,
      "dasha": 2992,
      "adesh": 2993,
      "rakta": 2994,
      "baher": 2995,
      "awa": 2996,
      "clas": 2997,
      "nd": 2998,
      "rick": 2999,
      "vity": 3000,
      "vision": 3001,
      "dish": 3002,
      "chaya": 3003,
      "bish": 3004,
      "vasan": 3005,
      "ganon": 3006,
      "gren": 3007,
      "shthan": 3008,
      "dent": 3009,
      "ita": 3010,
      "jwal": 3011,
      "rast": 3012,
      "viya": 3013,
      "vibhag": 3014,
      "thya": 3015,
      "kanti": 3016,
      "cking": 3017,
      "bury": 3018,
      "emplo": 3019,
      "shing": 3020,
      "rudra": 3021,
      "gger": 3022,
      "lani": 3023,
      "lana": 3024,
      "atmas": 3025,
      "ambar": 3026,
      "nah": 3027,
      "chihi": 3028,
      "sikha": 3029,
      "paya": 3030,
      "upad": 3031,
      "hing": 3032,
      "lling": 3033,
      "siddhan": 3034,
      "panthi": 3035,
      "fli": 3036,
      "tle": 3037,
      "zur": 3038,
      "hasan": 3039,
      "vili": 3040,
      "div": 3041,
      "mans": 3042,
      "toli": 3043,
      "ghon": 3044,
      "valli": 3045,
      "ghata": 3046,
      "aji": 3047,
      "bron": 3048,
      "handi": 3049,
      "ian": 3050,
      "mm": 3051,
      "uja": 3052,
      "baud": 3053,
      "bira": 3054,
      "koh": 3055,
      "chehi": 3056,
      "vade": 3057,
      "shrad": 3058,
      "milli": 3059,
      "inst": 3060,
      "yada": 3061,
      "tash": 3062,
      "niyan": 3063,
      "side": 3064,
      "aliya": 3065,
      "hura": 3066,
      "gori": 3067,
      "newali": 3068,
      "vidyala": 3069,
      "wick": 3070,
      "bhavna": 3071,
      "ged": 3072,
      "nandi": 3073,
      "won": 3074,
      "yama": 3075,
      "tian": 3076,
      "andha": 3077,
      "sten": 3078,
      "sih": 3079,
      "demo": 3080,
      "jiang": 3081,
      "pure": 3082,
      "prachar": 3083,
      "chemi": 3084,
      "vedi": 3085,
      "pesh": 3086,
      "palak": 3087,
      "yatmak": 3088,
      "grahan": 3089,
      "black": 3090,
      "ever": 3091,
      "fron": 3092,
      "pn": 3093,
      "yit": 3094,
      "adhin": 3095,
      "amani": 3096,
      "saur": 3097,
      "chira": 3098,
      "bhashi": 3099,
      "kiyan": 3100,
      "pos": 3101,
      "then": 3102,
      "shek": 3103,
      "shodh": 3104,
      "yantran": 3105,
      "dane": 3106,
      "lati": 3107,
      "myan": 3108,
      "oun": 3109,
      "puk": 3110,
      "atal": 3111,
      "adun": 3112,
      "chl": 3113,
      "rial": 3114,
      "taur": 3115,
      "ander": 3116,
      "shiva": 3117,
      "dekar": 3118,
      "kote": 3119,
      "patya": 3120,
      "gola": 3121,
      "kela": 3122,
      "veda": 3123,
      "vanya": 3124,
      "beli": 3125,
      "wall": 3126,
      "play": 3127,
      "electro": 3128,
      "jhat": 3129,
      "lala": 3130,
      "anj": 3131,
      "hair": 3132,
      "esis": 3133,
      "leli": 3134,
      "care": 3135,
      "venkat": 3136,
      "pping": 3137,
      "esa": 3138,
      "sahas": 3139,
      "chip": 3140,
      "sita": 3141,
      "sili": 3142,
      "siyon": 3143,
      "dayal": 3144,
      "huri": 3145,
      "khair": 3146,
      "patha": 3147,
      "tola": 3148,
      "vera": 3149,
      "bhare": 3150,
      "bujha": 3151,
      "ganesh": 3152,
      "glu": 3153,
      "ghara": 3154,
      "ucha": 3155,
      "winder": 3156,
      "ansh": 3157,
      "atti": 3158,
      "naga": 3159,
      "vaha": 3160,
      "vayu": 3161,
      "road": 3162,
      "pustak": 3163,
      "dhru": 3164,
      "kalam": 3165,
      "mura": 3166,
      "fail": 3167,
      "cture": 3168,
      "thera": 3169,
      "shraddha": 3170,
      "avan": 3171,
      "ayu": 3172,
      "cant": 3173,
      "cation": 3174,
      "gant": 3175,
      "kakar": 3176,
      "nrit": 3177,
      "ode": 3178,
      "wata": 3179,
      "alla": 3180,
      "urat": 3181,
      "bajar": 3182,
      "bila": 3183,
      "dong": 3184,
      "bund": 3185,
      "lya": 3186,
      "ardha": 3187,
      "atit": 3188,
      "tage": 3189,
      "macha": 3190,
      "maid": 3191,
      "strat": 3192,
      "nivad": 3193,
      "sic": 3194,
      "ume": 3195,
      "kid": 3196,
      "motor": 3197,
      "pita": 3198,
      "bodhi": 3199,
      "suchi": 3200,
      "mare": 3201,
      "kanya": 3202,
      "valu": 3203,
      "swami": 3204,
      "pahuncha": 3205,
      "fet": 3206,
      "ou": 3207,
      "hap": 3208,
      "atm": 3209,
      "onke": 3210,
      "shut": 3211,
      "stani": 3212,
      "yanvar": 3213,
      "kaz": 3214,
      "gauri": 3215,
      "pahu": 3216,
      "pramukh": 3217,
      "bori": 3218,
      "down": 3219,
      "noti": 3220,
      "masi": 3221,
      "taki": 3222,
      "chhap": 3223,
      "kirti": 3224,
      "bn": 3225,
      "pg": 3226,
      "archi": 3227,
      "info": 3228,
      "amen": 3229,
      "vita": 3230,
      "vilas": 3231,
      "lipi": 3232,
      "udhar": 3233,
      "niyam": 3234,
      "bita": 3235,
      "kikaran": 3236,
      "kota": 3237,
      "yatha": 3238,
      "sale": 3239,
      "khol": 3240,
      "kangres": 3241,
      "suni": 3242,
      "arti": 3243,
      "hae": 3244,
      "ink": 3245,
      "chut": 3246,
      "tax": 3247,
      "gos": 3248,
      "nesh": 3249,
      "suvidha": 3250,
      "bandhi": 3251,
      "yare": 3252,
      "pariksha": 3253,
      "sanghat": 3254,
      "bhavana": 3255,
      "ctions": 3256,
      "fara": 3257,
      "ide": 3258,
      "mend": 3259,
      "raghu": 3260,
      "urup": 3261,
      "video": 3262,
      "stor": 3263,
      "roli": 3264,
      "jis": 3265,
      "mill": 3266,
      "kishor": 3267,
      "warup": 3268,
      "sare": 3269,
      "pale": 3270,
      "kula": 3271,
      "isen": 3272,
      "khit": 3273,
      "punya": 3274,
      "ae": 3275,
      "hn": 3276,
      "chro": 3277,
      "tao": 3278,
      "chah": 3279,
      "kaye": 3280,
      "hora": 3281,
      "upura": 3282,
      "erson": 3283,
      "vyavasa": 3284,
      "swap": 3285,
      "fund": 3286,
      "pper": 3287,
      "vij": 3288,
      "yansathi": 3289,
      "ukul": 3290,
      "pulis": 3291,
      "bod": 3292,
      "bei": 3293,
      "ulia": 3294,
      "gaonkar": 3295,
      "break": 3296,
      "apo": 3297,
      "bing": 3298,
      "bina": 3299,
      "wes": 3300,
      "yum": 3301,
      "shail": 3302,
      "yanon": 3303,
      "saini": 3304,
      "nash": 3305,
      "udan": 3306,
      "els": 3307,
      "gid": 3308,
      "purat": 3309,
      "kalak": 3310,
      "maran": 3311,
      "dug": 3312,
      "cement": 3313,
      "grahi": 3314,
      "tirth": 3315,
      "yet": 3316,
      "haji": 3317,
      "shang": 3318,
      "rika": 3319,
      "tig": 3320,
      "dhul": 3321,
      "hind": 3322,
      "yakon": 3323,
      "graha": 3324,
      "taka": 3325,
      "plat": 3326,
      "sriram": 3327,
      "asthan": 3328,
      "eshwari": 3329,
      "lud": 3330,
      "adal": 3331,
      "likh": 3332,
      "hanuman": 3333,
      "bain": 3334,
      "manush": 3335,
      "parant": 3336,
      "vart": 3337,
      "patron": 3338,
      "megh": 3339,
      "pade": 3340,
      "paka": 3341,
      "antargat": 3342,
      "madhyehi": 3343,
      "tron": 3344,
      "hale": 3345,
      "lik": 3346,
      "chad": 3347,
      "bhash": 3348,
      "daf": 3349,
      "devas": 3350,
      "kola": 3351,
      "mohi": 3352,
      "patr": 3353,
      "bola": 3354,
      "baki": 3355,
      "sarai": 3356,
      "avad": 3357,
      "stic": 3358,
      "chhit": 3359,
      "ences": 3360,
      "asthi": 3361,
      "haru": 3362,
      "karen": 3363,
      "vacha": 3364,
      "jila": 3365,
      "suraksha": 3366,
      "darsha": 3367,
      "beri": 3368,
      "kamar": 3369,
      "yakade": 3370,
      "islam": 3371,
      "male": 3372,
      "base": 3373,
      "vikram": 3374,
      "uc": 3375,
      "havi": 3376,
      "hama": 3377,
      "haki": 3378,
      "stant": 3379,
      "elle": 3380,
      "rem": 3381,
      "gouda": 3382,
      "kem": 3383,
      "janan": 3384,
      "chhaya": 3385,
      "jhum": 3386,
      "blue": 3387,
      "dl": 3388,
      "tand": 3389,
      "akash": 3390,
      "baga": 3391,
      "ulal": 3392,
      "kache": 3393,
      "deli": 3394,
      "kira": 3395,
      "poti": 3396,
      "prana": 3397,
      "bos": 3398,
      "bhram": 3399,
      "vasti": 3400,
      "dhiyon": 3401,
      "kathi": 3402,
      "ratan": 3403,
      "swit": 3404,
      "vishnu": 3405,
      "tale": 3406,
      "corpor": 3407,
      "sym": 3408,
      "yuddha": 3409,
      "sahitya": 3410,
      "whit": 3411,
      "hip": 3412,
      "uran": 3413,
      "urti": 3414,
      "dian": 3415,
      "chitr": 3416,
      "lekar": 3417,
      "patan": 3418,
      "hatya": 3419,
      "boy": 3420,
      "made": 3421,
      "tare": 3422,
      "bhir": 3423,
      "ghut": 3424,
      "yaksha": 3425,
      "appa": 3426,
      "gru": 3427,
      "grat": 3428,
      "ikh": 3429,
      "mt": 3430,
      "tup": 3431,
      "uh": 3432,
      "ality": 3433,
      "eron": 3434,
      "akshi": 3435,
      "kag": 3436,
      "vain": 3437,
      "vach": 3438,
      "sila": 3439,
      "pare": 3440,
      "market": 3441,
      "raje": 3442,
      "rahman": 3443,
      "dudh": 3444,
      "bt": 3445,
      "cad": 3446,
      "ika": 3447,
      "our": 3448,
      "hazar": 3449,
      "hiran": 3450,
      "chay": 3451,
      "ulan": 3452,
      "ukt": 3453,
      "biya": 3454,
      "vare": 3455,
      "adiya": 3456,
      "pia": 3457,
      "pika": 3458,
      "aney": 3459,
      "yaram": 3460,
      "sadas": 3461,
      "kumari": 3462,
      "billi": 3463,
      "jes": 3464,
      "kshit": 3465,
      "lup": 3466,
      "nc": 3467,
      "vistar": 3468,
      "mafi": 3469,
      "hanu": 3470,
      "saya": 3471,
      "nahin": 3472,
      "pac": 3473,
      "garhi": 3474,
      "vanon": 3475,
      "dharak": 3476,
      "pakh": 3477,
      "gham": 3478,
      "gatha": 3479,
      "uday": 3480,
      "cally": 3481,
      "bran": 3482,
      "dine": 3483,
      "eda": 3484,
      "io": 3485,
      "rali": 3486,
      "vation": 3487,
      "chol": 3488,
      "hanon": 3489,
      "home": 3490,
      "jagar": 3491,
      "prabhav": 3492,
      "lom": 3493,
      "coll": 3494,
      "fish": 3495,
      "veshan": 3496,
      "chandan": 3497,
      "apari": 3498,
      "prote": 3499,
      "vatine": 3500,
      "taluk": 3501,
      "abdul": 3502,
      "buddha": 3503,
      "cup": 3504,
      "dada": 3505,
      "dron": 3506,
      "guni": 3507,
      "jung": 3508,
      "pum": 3509,
      "chura": 3510,
      "time": 3511,
      "maho": 3512,
      "dire": 3513,
      "naon": 3514,
      "vardhak": 3515,
      "adia": 3516,
      "kera": 3517,
      "fici": 3518,
      "vela": 3519,
      "maru": 3520,
      "doli": 3521,
      "buil": 3522,
      "paki": 3523,
      "compo": 3524,
      "sangha": 3525,
      "mith": 3526,
      "able": 3527,
      "prith": 3528,
      "bahut": 3529,
      "virodhat": 3530,
      "aga": 3531,
      "bc": 3532,
      "cir": 3533,
      "lus": 3534,
      "sci": 3535,
      "ubhar": 3536,
      "allo": 3537,
      "ally": 3538,
      "taji": 3539,
      "map": 3540,
      "machi": 3541,
      "chatu": 3542,
      "pravesh": 3543,
      "samvad": 3544,
      "varna": 3545,
      "kod": 3546,
      "moto": 3547,
      "gard": 3548,
      "neh": 3549,
      "padma": 3550,
      "gue": 3551,
      "fort": 3552,
      "elling": 3553,
      "schul": 3554,
      "chhed": 3555,
      "qar": 3556,
      "inves": 3557,
      "aso": 3558,
      "andro": 3559,
      "itan": 3560,
      "kaur": 3561,
      "kapur": 3562,
      "kail": 3563,
      "udas": 3564,
      "alab": 3565,
      "leshwar": 3566,
      "mora": 3567,
      "yogya": 3568,
      "soft": 3569,
      "enter": 3570,
      "thakur": 3571,
      "kancha": 3572,
      "muz": 3573,
      "muta": 3574,
      "amaya": 3575,
      "yaro": 3576,
      "krishi": 3577,
      "vidyalaya": 3578,
      "plant": 3579,
      "cross": 3580,
      "smriti": 3581,
      "shilta": 3582,
      "tada": 3583,
      "atam": 3584,
      "rain": 3585,
      "chy": 3586,
      "vist": 3587,
      "vishi": 3588,
      "hein": 3589,
      "alist": 3590,
      "bhrash": 3591,
      "bans": 3592,
      "shok": 3593,
      "carbon": 3594,
      "manik": 3595,
      "durga": 3596,
      "hasya": 3597,
      "rala": 3598,
      "raz": 3599,
      "viron": 3600,
      "oran": 3601,
      "kachi": 3602,
      "rose": 3603,
      "rampur": 3604,
      "gare": 3605,
      "prani": 3606,
      "saras": 3607,
      "gesh": 3608,
      "daro": 3609,
      "beg": 3610,
      "yatri": 3611,
      "mont": 3612,
      "genic": 3613,
      "sakar": 3614,
      "abhin": 3615,
      "rakshan": 3616,
      "bhang": 3617,
      "bhakt": 3618,
      "adhyaksha": 3619,
      "bate": 3620,
      "dru": 3621,
      "ip": 3622,
      "mn": 3623,
      "arup": 3624,
      "hasi": 3625,
      "shring": 3626,
      "haro": 3627,
      "chata": 3628,
      "nach": 3629,
      "dae": 3630,
      "prabhu": 3631,
      "gora": 3632,
      "beda": 3633,
      "dhik": 3634,
      "kudi": 3635,
      "konda": 3636,
      "khori": 3637,
      "chhand": 3638,
      "dakshi": 3639,
      "datt": 3640,
      "plex": 3641,
      "maji": 3642,
      "baya": 3643,
      "yanand": 3644,
      "bhaya": 3645,
      "bhati": 3646,
      "gaz": 3647,
      "los": 3648,
      "samud": 3649,
      "hui": 3650,
      "jano": 3651,
      "sadh": 3652,
      "mental": 3653,
      "raksh": 3654,
      "metro": 3655,
      "buddin": 3656,
      "brahm": 3657,
      "chloro": 3658,
      "brit": 3659,
      "cis": 3660,
      "fuk": 3661,
      "lel": 3662,
      "pind": 3663,
      "wing": 3664,
      "vishesh": 3665,
      "chadha": 3666,
      "shaili": 3667,
      "yanmadhye": 3668,
      "jaj": 3669,
      "prayog": 3670,
      "mori": 3671,
      "adih": 3672,
      "subra": 3673,
      "kanta": 3674,
      "cken": 3675,
      "makh": 3676,
      "hammad": 3677,
      "link": 3678,
      "siddh": 3679,
      "aval": 3680,
      "gle": 3681,
      "hes": 3682,
      "sva": 3683,
      "inath": 3684,
      "chav": 3685,
      "uthi": 3686,
      "anik": 3687,
      "antr": 3688,
      "antri": 3689,
      "pod": 3690,
      "patnam": 3691,
      "youn": 3692,
      "prene": 3693,
      "faz": 3694,
      "cio": 3695,
      "corn": 3696,
      "gyani": 3697,
      "person": 3698,
      "sambandhi": 3699,
      "dya": 3700,
      "ggi": 3701,
      "mind": 3702,
      "sation": 3703,
      "hava": 3704,
      "tikaran": 3705,
      "andra": 3706,
      "likha": 3707,
      "chaura": 3708,
      "ulat": 3709,
      "manch": 3710,
      "lem": 3711,
      "bic": 3712,
      "paryavar": 3713,
      "cop": 3714,
      "mera": 3715,
      "thur": 3716,
      "dhir": 3717,
      "amay": 3718,
      "immun": 3719,
      "udai": 3720,
      "pitri": 3721,
      "virodh": 3722,
      "gend": 3723,
      "ameri": 3724,
      "asia": 3725,
      "tau": 3726,
      "laur": 3727,
      "mahu": 3728,
      "nap": 3729,
      "eter": 3730,
      "bile": 3731,
      "pichha": 3732,
      "bandar": 3733,
      "conne": 3734,
      "yaron": 3735,
      "parisha": 3736,
      "unahi": 3737,
      "kru": 3738,
      "adam": 3739,
      "iton": 3740,
      "dau": 3741,
      "dekha": 3742,
      "pravar": 3743,
      "loh": 3744,
      "pist": 3745,
      "khen": 3746,
      "fili": 3747,
      "ghor": 3748,
      "kushal": 3749,
      "walia": 3750,
      "cheng": 3751,
      "shatru": 3752,
      "adhyaksh": 3753,
      "apat": 3754,
      "fala": 3755,
      "mha": 3756,
      "rc": 3757,
      "rt": 3758,
      "sd": 3759,
      "hika": 3760,
      "rajan": 3761,
      "akhi": 3762,
      "akam": 3763,
      "sabhe": 3764,
      "pait": 3765,
      "jaye": 3766,
      "biyan": 3767,
      "point": 3768,
      "pera": 3769,
      "padon": 3770,
      "haria": 3771,
      "quin": 3772,
      "eller": 3773,
      "andip": 3774,
      "reni": 3775,
      "stock": 3776,
      "udev": 3777,
      "pranali": 3778,
      "vahini": 3779,
      "kedar": 3780,
      "lelya": 3781,
      "spor": 3782,
      "hiro": 3783,
      "shel": 3784,
      "vila": 3785,
      "life": 3786,
      "esathi": 3787,
      "digi": 3788,
      "chain": 3789,
      "chach": 3790,
      "gik": 3791,
      "kiri": 3792,
      "khabar": 3793,
      "janm": 3794,
      "geri": 3795,
      "pedi": 3796,
      "dharmi": 3797,
      "fair": 3798,
      "kadam": 3799,
      "ratri": 3800,
      "sheh": 3801,
      "yuva": 3802,
      "berry": 3803,
      "lakar": 3804,
      "produ": 3805,
      "cals": 3806,
      "gaman": 3807,
      "vriddhi": 3808,
      "cari": 3809,
      "dwa": 3810,
      "osis": 3811,
      "rukh": 3812,
      "tend": 3813,
      "vor": 3814,
      "wu": 3815,
      "ravan": 3816,
      "rahit": 3817,
      "shrin": 3818,
      "vihar": 3819,
      "viman": 3820,
      "vije": 3821,
      "disha": 3822,
      "nay": 3823,
      "uko": 3824,
      "ethi": 3825,
      "usan": 3826,
      "usti": 3827,
      "ango": 3828,
      "load": 3829,
      "parsh": 3830,
      "kodi": 3831,
      "huun": 3832,
      "patal": 3833,
      "mega": 3834,
      "bhen": 3835,
      "dosh": 3836,
      "face": 3837,
      "bura": 3838,
      "cep": 3839,
      "gadhi": 3840,
      "fere": 3841,
      "ayur": 3842,
      "abhya": 3843,
      "jn": 3844,
      "jate": 3845,
      "pton": 3846,
      "infor": 3847,
      "shru": 3848,
      "adit": 3849,
      "vikar": 3850,
      "vivad": 3851,
      "laut": 3852,
      "karn": 3853,
      "bajon": 3854,
      "nayak": 3855,
      "ello": 3856,
      "nilam": 3857,
      "devar": 3858,
      "gic": 3859,
      "regul": 3860,
      "kita": 3861,
      "kila": 3862,
      "kisi": 3863,
      "angre": 3864,
      "parinam": 3865,
      "varn": 3866,
      "pid": 3867,
      "piyon": 3868,
      "pujan": 3869,
      "fier": 3870,
      "take": 3871,
      "lls": 3872,
      "sure": 3873,
      "hone": 3874,
      "crypto": 3875,
      "brat": 3876,
      "ml": 3877,
      "oj": 3878,
      "ankar": 3879,
      "habi": 3880,
      "rasi": 3881,
      "asis": 3882,
      "bhay": 3883,
      "kop": 3884,
      "yed": 3885,
      "pann": 3886,
      "dod": 3887,
      "thala": 3888,
      "kanwar": 3889,
      "charcha": 3890,
      "dhikaran": 3891,
      "bharti": 3892,
      "cong": 3893,
      "contro": 3894,
      "kshak": 3895,
      "batti": 3896,
      "shodhan": 3897,
      "sukha": 3898,
      "tz": 3899,
      "ue": 3900,
      "usha": 3901,
      "anak": 3902,
      "yav": 3903,
      "vikal": 3904,
      "tapur": 3905,
      "andhar": 3906,
      "mav": 3907,
      "ital": 3908,
      "bair": 3909,
      "kachya": 3910,
      "vae": 3911,
      "chich": 3912,
      "gawa": 3913,
      "sian": 3914,
      "deb": 3915,
      "dela": 3916,
      "pahan": 3917,
      "reh": 3918,
      "rey": 3919,
      "bich": 3920,
      "prashan": 3921,
      "prasta": 3922,
      "neur": 3923,
      "tot": 3924,
      "vasta": 3925,
      "ruchi": 3926,
      "charon": 3927,
      "endri": 3928,
      "cash": 3929,
      "bhuj": 3930,
      "jhon": 3931,
      "dynam": 3932,
      "ayat": 3933,
      "bram": 3934,
      "clar": 3935,
      "cted": 3936,
      "fine": 3937,
      "ie": 3938,
      "iye": 3939,
      "lele": 3940,
      "mine": 3941,
      "nate": 3942,
      "rane": 3943,
      "zari": 3944,
      "adon": 3945,
      "taye": 3946,
      "chale": 3947,
      "chate": 3948,
      "shita": 3949,
      "upe": 3950,
      "parv": 3951,
      "varsh": 3952,
      "koli": 3953,
      "seri": 3954,
      "patthar": 3955,
      "guar": 3956,
      "contin": 3957,
      "yika": 3958,
      "swan": 3959,
      "gandh": 3960,
      "chhod": 3961,
      "alisation": 3962,
      "hospit": 3963,
      "cand": 3964,
      "fru": 3965,
      "oto": 3966,
      "pta": 3967,
      "rs": 3968,
      "eru": 3969,
      "harsha": 3970,
      "shau": 3971,
      "nic": 3972,
      "umal": 3973,
      "pavan": 3974,
      "pahal": 3975,
      "jid": 3976,
      "bian": 3977,
      "parat": 3978,
      "pis": 3979,
      "ghadi": 3980,
      "jhad": 3981,
      "comput": 3982,
      "natya": 3983,
      "ausha": 3984,
      "nri": 3985,
      "lie": 3986,
      "divas": 3987,
      "stand": 3988,
      "nahar": 3989,
      "nayan": 3990,
      "vayenge": 3991,
      "gachi": 3992,
      "pragya": 3993,
      "paran": 3994,
      "samas": 3995,
      "patta": 3996,
      "fid": 3997,
      "bera": 3998,
      "dhariyon": 3999,
      "inia": 4000,
      "kuri": 4001,
      "grafi": 4002,
      "grafic": 4003,
      "apas": 4004,
      "kasha": 4005,
      "try": 4006,
      "desi": 4007,
      "puriya": 4008,
      "mrityu": 4009,
      "fren": 4010,
      "light": 4011,
      "sapt": 4012,
      "prabh": 4013,
      "samman": 4014,
      "huli": 4015,
      "wash": 4016,
      "dhav": 4017,
      "dhati": 4018,
      "taron": 4019,
      "muha": 4020,
      "pakshi": 4021,
      "khir": 4022,
      "basi": 4023,
      "sharma": 4024,
      "vidyut": 4025,
      "veni": 4026,
      "burn": 4027,
      "dakshin": 4028,
      "court": 4029,
      "gc": 4030,
      "imar": 4031,
      "kandi": 4032,
      "zy": 4033,
      "hima": 4034,
      "amon": 4035,
      "ures": 4036,
      "lion": 4037,
      "saja": 4038,
      "naji": 4039,
      "dagi": 4040,
      "gio": 4041,
      "kothi": 4042,
      "cock": 4043,
      "rame": 4044,
      "pipal": 4045,
      "khate": 4046,
      "patt": 4047,
      "khanda": 4048,
      "daram": 4049,
      "charitra": 4050,
      "balon": 4051,
      "gua": 4052,
      "hariyon": 4053,
      "mule": 4054,
      "trin": 4055,
      "gyata": 4056,
      "grand": 4057,
      "patiyon": 4058,
      "vesha": 4059,
      "bhagwan": 4060,
      "parampara": 4061,
      "equ": 4062,
      "panda": 4063,
      "anchal": 4064,
      "alal": 4065,
      "high": 4066,
      "ched": 4067,
      "rig": 4068,
      "manand": 4069,
      "utri": 4070,
      "antari": 4071,
      "moha": 4072,
      "pudi": 4073,
      "sarve": 4074,
      "janma": 4075,
      "bhik": 4076,
      "balu": 4077,
      "pakad": 4078,
      "vakta": 4079,
      "syl": 4080,
      "andolan": 4081,
      "spo": 4082,
      "sno": 4083,
      "laha": 4084,
      "lite": 4085,
      "shav": 4086,
      "sahan": 4087,
      "aries": 4088,
      "eto": 4089,
      "pag": 4090,
      "pair": 4091,
      "heal": 4092,
      "pradarshan": 4093,
      "yesh": 4094,
      "pik": 4095,
      "surak": 4096,
      "padar": 4097,
      "taram": 4098,
      "dhikari": 4099,
      "mukta": 4100,
      "sheti": 4101,
      "salam": 4102,
      "gene": 4103,
      "sene": 4104,
      "baka": 4105,
      "skrit": 4106,
      "scrin": 4107,
      "natak": 4108,
      "gold": 4109,
      "yuddh": 4110,
      "cp": 4111,
      "ctri": 4112,
      "fing": 4113,
      "isa": 4114,
      "kre": 4115,
      "vn": 4116,
      "ym": 4117,
      "yel": 4118,
      "vishe": 4119,
      "vigya": 4120,
      "shakha": 4121,
      "ull": 4122,
      "rock": 4123,
      "gay": 4124,
      "gaut": 4125,
      "dabad": 4126,
      "dei": 4127,
      "lei": 4128,
      "bihar": 4129,
      "alik": 4130,
      "varhi": 4131,
      "gom": 4132,
      "ental": 4133,
      "turi": 4134,
      "vakan": 4135,
      "cardi": 4136,
      "antaran": 4137,
      "nirman": 4138,
      "adhyat": 4139,
      "ghatan": 4140,
      "ghatna": 4141,
      "site": 4142,
      "gandha": 4143,
      "fly": 4144,
      "gt": 4145,
      "idi": 4146,
      "that": 4147,
      "adri": 4148,
      "chron": 4149,
      "akari": 4150,
      "said": 4151,
      "nisha": 4152,
      "umo": 4153,
      "leh": 4154,
      "anish": 4155,
      "angal": 4156,
      "ante": 4157,
      "upat": 4158,
      "ranjan": 4159,
      "peh": 4160,
      "katar": 4161,
      "vidon": 4162,
      "express": 4163,
      "musta": 4164,
      "bath": 4165,
      "late": 4166,
      "qat": 4167,
      "anat": 4168,
      "allah": 4169,
      "ono": 4170,
      "bash": 4171,
      "nain": 4172,
      "udyog": 4173,
      "gao": 4174,
      "nivas": 4175,
      "jav": 4176,
      "jagan": 4177,
      "big": 4178,
      "pradar": 4179,
      "atahi": 4180,
      "waha": 4181,
      "pila": 4182,
      "beck": 4183,
      "udaya": 4184,
      "broad": 4185,
      "radio": 4186,
      "thermo": 4187,
      "bridge": 4188,
      "gath": 4189,
      "aling": 4190,
      "enga": 4191,
      "visar": 4192,
      "vill": 4193,
      "tag": 4194,
      "dikh": 4195,
      "chaud": 4196,
      "shas": 4197,
      "sag": 4198,
      "chid": 4199,
      "utpad": 4200,
      "sira": 4201,
      "jau": 4202,
      "mim": 4203,
      "prapti": 4204,
      "kok": 4205,
      "semi": 4206,
      "polis": 4207,
      "suha": 4208,
      "media": 4209,
      "bhor": 4210,
      "thro": 4211,
      "kuli": 4212,
      "valya": 4213,
      "lution": 4214,
      "panishad": 4215,
      "mudra": 4216,
      "speci": 4217,
      "granth": 4218,
      "oxy": 4219,
      "blas": 4220,
      "cate": 4221,
      "dp": 4222,
      "pine": 4223,
      "uba": 4224,
      "shro": 4225,
      "chup": 4226,
      "ens": 4227,
      "tili": 4228,
      "its": 4229,
      "sters": 4230,
      "ulla": 4231,
      "sabhi": 4232,
      "nip": 4233,
      "shira": 4234,
      "deri": 4235,
      "prast": 4236,
      "tesh": 4237,
      "copy": 4238,
      "garam": 4239,
      "gover": 4240,
      "sarkhya": 4241,
      "sot": 4242,
      "bek": 4243,
      "padh": 4244,
      "tarun": 4245,
      "matdar": 4246,
      "mulya": 4247,
      "puria": 4248,
      "villa": 4249,
      "group": 4250,
      "swamy": 4251,
      "preneur": 4252,
      "zel": 4253,
      "rachana": 4254,
      "onko": 4255,
      "rita": 4256,
      "kaun": 4257,
      "nibha": 4258,
      "etti": 4259,
      "ette": 4260,
      "anaen": 4261,
      "bour": 4262,
      "padam": 4263,
      "amau": 4264,
      "makar": 4265,
      "tone": 4266,
      "sangra": 4267,
      "sindh": 4268,
      "metric": 4269,
      "muru": 4270,
      "stitu": 4271,
      "world": 4272,
      "ear": 4273,
      "fta": 4274,
      "ose": 4275,
      "spon": 4276,
      "yus": 4277,
      "ater": 4278,
      "amir": 4279,
      "aku": 4280,
      "vigh": 4281,
      "andas": 4282,
      "lio": 4283,
      "itar": 4284,
      "ulya": 4285,
      "savan": 4286,
      "naur": 4287,
      "manya": 4288,
      "rohi": 4289,
      "gis": 4290,
      "biyon": 4291,
      "heim": 4292,
      "praya": 4293,
      "prakri": 4294,
      "colo": 4295,
      "pole": 4296,
      "patho": 4297,
      "chem": 4298,
      "vastra": 4299,
      "sour": 4300,
      "gher": 4301,
      "mond": 4302,
      "gurud": 4303,
      "manda": 4304,
      "wasa": 4305,
      "adhik": 4306,
      "hong": 4307,
      "shtata": 4308,
      "wei": 4309,
      "rashtriya": 4310,
      "shukra": 4311,
      "jilha": 4312,
      "agu": 4313,
      "azi": 4314,
      "cm": 4315,
      "dt": 4316,
      "date": 4317,
      "oba": 4318,
      "scor": 4319,
      "inh": 4320,
      "inde": 4321,
      "laun": 4322,
      "sting": 4323,
      "etar": 4324,
      "dem": 4325,
      "bichha": 4326,
      "angar": 4327,
      "colon": 4328,
      "puch": 4329,
      "prant": 4330,
      "fis": 4331,
      "guri": 4332,
      "anuma": 4333,
      "veshi": 4334,
      "gging": 4335,
      "employ": 4336,
      "fati": 4337,
      "ghani": 4338,
      "test": 4339,
      "vend": 4340,
      "wami": 4341,
      "atu": 4342,
      "racha": 4343,
      "assi": 4344,
      "akshmi": 4345,
      "lig": 4346,
      "yantar": 4347,
      "saji": 4348,
      "chini": 4349,
      "mile": 4350,
      "samudra": 4351,
      "varta": 4352,
      "varshi": 4353,
      "kos": 4354,
      "seh": 4355,
      "hatti": 4356,
      "anewale": 4357,
      "madan": 4358,
      "maram": 4359,
      "marge": 4360,
      "dot": 4361,
      "peksh": 4362,
      "lake": 4363,
      "sakh": 4364,
      "jhuk": 4365,
      "endrasinh": 4366,
      "watch": 4367,
      "bhanu": 4368,
      "kunda": 4369,
      "otsav": 4370,
      "vriksha": 4371,
      "worth": 4372,
      "craft": 4373,
      "ave": 4374,
      "eg": 4375,
      "fam": 4376,
      "fani": 4377,
      "ii": 4378,
      "anar": 4379,
      "atak": 4380,
      "onic": 4381,
      "uncha": 4382,
      "stin": 4383,
      "sac": 4384,
      "safal": 4385,
      "manji": 4386,
      "rodhi": 4387,
      "uto": 4388,
      "devan": 4389,
      "pradu": 4390,
      "pathan": 4391,
      "mela": 4392,
      "madar": 4393,
      "vast": 4394,
      "marfat": 4395,
      "doh": 4396,
      "palle": 4397,
      "dhikar": 4398,
      "vishwas": 4399,
      "quar": 4400,
      "gharon": 4401,
      "sandhi": 4402,
      "pratinidhi": 4403,
      "cele": 4404,
      "dukh": 4405,
      "ea": 4406,
      "fts": 4407,
      "lada": 4408,
      "sandi": 4409,
      "spin": 4410,
      "wir": 4411,
      "zada": 4412,
      "rami": 4413,
      "ragh": 4414,
      "inta": 4415,
      "shuru": 4416,
      "urya": 4417,
      "tapas": 4418,
      "mahana": 4419,
      "chas": 4420,
      "bhain": 4421,
      "bhagat": 4422,
      "jiyon": 4423,
      "jap": 4424,
      "kishan": 4425,
      "khum": 4426,
      "santa": 4427,
      "sujha": 4428,
      "janam": 4429,
      "thun": 4430,
      "peta": 4431,
      "virus": 4432,
      "vadita": 4433,
      "naka": 4434,
      "tatva": 4435,
      "rene": 4436,
      "sanskar": 4437,
      "oz": 4438,
      "wate": 4439,
      "alli": 4440,
      "karkhan": 4441,
      "liye": 4442,
      "sail": 4443,
      "nauk": 4444,
      "roz": 4445,
      "daud": 4446,
      "umed": 4447,
      "paul": 4448,
      "gian": 4449,
      "bill": 4450,
      "pom": 4451,
      "tox": 4452,
      "dare": 4453,
      "marga": 4454,
      "ritva": 4455,
      "vyas": 4456,
      "suksh": 4457,
      "munda": 4458,
      "bruk": 4459,
      "pratha": 4460,
      "zole": 4461,
      "sthali": 4462,
      "arogya": 4463,
      "kaushal": 4464,
      "cess": 4465,
      "df": 4466,
      "glas": 4467,
      "kina": 4468,
      "nt": 4469,
      "plic": 4470,
      "anpur": 4471,
      "analy": 4472,
      "amy": 4473,
      "akha": 4474,
      "akshe": 4475,
      "vida": 4476,
      "andhi": 4477,
      "kary": 4478,
      "kawa": 4479,
      "mansa": 4480,
      "chita": 4481,
      "jiyan": 4482,
      "prakriya": 4483,
      "alism": 4484,
      "dhwani": 4485,
      "vadh": 4486,
      "chanda": 4487,
      "hariyan": 4488,
      "khiya": 4489,
      "swor": 4490,
      "adhuni": 4491,
      "feri": 4492,
      "ashlil": 4493,
      "kulam": 4494,
      "abhiyan": 4495,
      "rashtri": 4496,
      "dhol": 4497,
      "ctu": 4498,
      "odia": 4499,
      "aswamy": 4500,
      "lax": 4501,
      "ortho": 4502,
      "savar": 4503,
      "vayi": 4504,
      "sikh": 4505,
      "prakaran": 4506,
      "alization": 4507,
      "loi": 4508,
      "samjha": 4509,
      "samved": 4510,
      "khati": 4511,
      "hatmak": 4512,
      "fira": 4513,
      "ganv": 4514,
      "dhane": 4515,
      "passen": 4516,
      "mania": 4517,
      "rakt": 4518,
      "porn": 4519,
      "yukti": 4520,
      "samaya": 4521,
      "dakh": 4522,
      "acti": 4523,
      "tirtha": 4524,
      "vritt": 4525,
      "saundarya": 4526,
      "psy": 4527,
      "sate": 4528,
      "alin": 4529,
      "alpa": 4530,
      "shna": 4531,
      "adas": 4532,
      "taf": 4533,
      "laye": 4534,
      "harit": 4535,
      "vahin": 4536,
      "pack": 4537,
      "giz": 4538,
      "jaha": 4539,
      "javal": 4540,
      "lori": 4541,
      "pian": 4542,
      "khata": 4543,
      "mei": 4544,
      "thuk": 4545,
      "beta": 4546,
      "yaton": 4547,
      "gura": 4548,
      "metri": 4549,
      "nashi": 4550,
      "jhane": 4551,
      "ground": 4552,
      "andarbhat": 4553,
      "sandarbhat": 4554,
      "abu": 4555,
      "ctic": 4556,
      "dle": 4557,
      "ffar": 4558,
      "juk": 4559,
      "oy": 4560,
      "open": 4561,
      "ologist": 4562,
      "ats": 4563,
      "hia": 4564,
      "rahe": 4565,
      "adho": 4566,
      "astra": 4567,
      "distri": 4568,
      "shaha": 4569,
      "nazar": 4570,
      "deshan": 4571,
      "recor": 4572,
      "praj": 4573,
      "parast": 4574,
      "sek": 4575,
      "waron": 4576,
      "pruf": 4577,
      "tos": 4578,
      "endranath": 4579,
      "tarak": 4580,
      "muza": 4581,
      "gui": 4582,
      "consul": 4583,
      "shev": 4584,
      "lance": 4585,
      "name": 4586,
      "trum": 4587,
      "samay": 4588,
      "kins": 4589,
      "palike": 4590,
      "mukhyamantri": 4591,
      "jra": 4592,
      "lari": 4593,
      "lali": 4594,
      "lane": 4595,
      "spr": 4596,
      "tud": 4597,
      "yach": 4598,
      "tial": 4599,
      "vijet": 4600,
      "karyan": 4601,
      "itha": 4602,
      "bagi": 4603,
      "kavar": 4604,
      "nih": 4605,
      "daba": 4606,
      "umari": 4607,
      "varman": 4608,
      "khus": 4609,
      "khandi": 4610,
      "nem": 4611,
      "such": 4612,
      "rajniti": 4613,
      "padha": 4614,
      "indon": 4615,
      "ghra": 4616,
      "train": 4617,
      "buri": 4618,
      "masa": 4619,
      "ids": 4620,
      "jhak": 4621,
      "jham": 4622,
      "fod": 4623,
      "basti": 4624,
      "fore": 4625,
      "vishesha": 4626,
      "nasi": 4627,
      "boro": 4628,
      "chariyon": 4629,
      "kartavya": 4630,
      "clear": 4631,
      "sharir": 4632,
      "dm": 4633,
      "ader": 4634,
      "viyon": 4635,
      "lika": 4636,
      "dipa": 4637,
      "uddha": 4638,
      "umat": 4639,
      "pavi": 4640,
      "homo": 4641,
      "ingi": 4642,
      "hey": 4643,
      "kill": 4644,
      "varga": 4645,
      "vartan": 4646,
      "pim": 4647,
      "pathar": 4648,
      "sansthan": 4649,
      "chyavatine": 4650,
      "shanon": 4651,
      "pass": 4652,
      "cart": 4653,
      "compan": 4654,
      "jami": 4655,
      "game": 4656,
      "adev": 4657,
      "sions": 4658,
      "drish": 4659,
      "shabd": 4660,
      "dhundh": 4661,
      "pudhe": 4662,
      "bhavishya": 4663,
      "gm": 4664,
      "twit": 4665,
      "anura": 4666,
      "hakar": 4667,
      "rafi": 4668,
      "rauli": 4669,
      "chud": 4670,
      "asim": 4671,
      "uron": 4672,
      "maga": 4673,
      "magar": 4674,
      "dies": 4675,
      "ultra": 4676,
      "vachi": 4677,
      "sip": 4678,
      "shiro": 4679,
      "pahad": 4680,
      "lex": 4681,
      "prasar": 4682,
      "lod": 4683,
      "puj": 4684,
      "nex": 4685,
      "keri": 4686,
      "muh": 4687,
      "balam": 4688,
      "buj": 4689,
      "cies": 4690,
      "yuti": 4691,
      "nami": 4692,
      "kunwar": 4693,
      "chhup": 4694,
      "sery": 4695,
      "gariya": 4696,
      "block": 4697,
      "parivartan": 4698,
      "karyakram": 4699,
      "aqu": 4700,
      "cet": 4701,
      "jada": 4702,
      "kwa": 4703,
      "nyu": 4704,
      "oa": 4705,
      "oshi": 4706,
      "ppan": 4707,
      "all": 4708,
      "yasho": 4709,
      "maon": 4710,
      "shashi": 4711,
      "stad": 4712,
      "sthit": 4713,
      "bahan": 4714,
      "nika": 4715,
      "nidhi": 4716,
      "jira": 4717,
      "milan": 4718,
      "prapt": 4719,
      "anaon": 4720,
      "sei": 4721,
      "sera": 4722,
      "posh": 4723,
      "khwa": 4724,
      "sarvad": 4725,
      "sarkhe": 4726,
      "inir": 4727,
      "iniyon": 4728,
      "proto": 4729,
      "pasar": 4730,
      "madhyech": 4731,
      "chintan": 4732,
      "khoj": 4733,
      "gyanik": 4734,
      "haniyan": 4735,
      "sapta": 4736,
      "sanskriti": 4737,
      "dirgha": 4738,
      "anthro": 4739,
      "saheb": 4740,
      "awas": 4741,
      "cara": 4742,
      "econ": 4743,
      "pf": 4744,
      "tram": 4745,
      "arjun": 4746,
      "hasa": 4747,
      "hawa": 4748,
      "hid": 4749,
      "engen": 4750,
      "yanu": 4751,
      "nig": 4752,
      "shivar": 4753,
      "shivay": 4754,
      "umati": 4755,
      "giyan": 4756,
      "java": 4757,
      "mom": 4758,
      "edu": 4759,
      "sanchal": 4760,
      "body": 4761,
      "guard": 4762,
      "contra": 4763,
      "valo": 4764,
      "katta": 4765,
      "thir": 4766,
      "priti": 4767,
      "cyto": 4768,
      "linga": 4769,
      "kunj": 4770,
      "panth": 4771,
      "yatil": 4772,
      "ways": 4773,
      "shunya": 4774,
      "ain": 4775,
      "acha": 4776,
      "avo": 4777,
      "cci": 4778,
      "dina": 4779,
      "emi": 4780,
      "kle": 4781,
      "tyanchya": 4782,
      "wis": 4783,
      "yes": 4784,
      "ankh": 4785,
      "amine": 4786,
      "tier": 4787,
      "vika": 4788,
      "harin": 4789,
      "did": 4790,
      "shakh": 4791,
      "station": 4792,
      "manj": 4793,
      "elu": 4794,
      "uttam": 4795,
      "sib": 4796,
      "siyan": 4797,
      "prayo": 4798,
      "koshi": 4799,
      "dhwa": 4800,
      "fix": 4801,
      "vanas": 4802,
      "thes": 4803,
      "faq": 4804,
      "madhyam": 4805,
      "jale": 4806,
      "dasta": 4807,
      "kumbha": 4808,
      "hakti": 4809,
      "beni": 4810,
      "dene": 4811,
      "vishayak": 4812,
      "dayit": 4813,
      "avashyak": 4814,
      "act": 4815,
      "cb": 4816,
      "kyo": 4817,
      "och": 4818,
      "rina": 4819,
      "sent": 4820,
      "sca": 4821,
      "vs": 4822,
      "vrin": 4823,
      "zir": 4824,
      "anwar": 4825,
      "yay": 4826,
      "andhan": 4827,
      "maul": 4828,
      "magi": 4829,
      "nab": 4830,
      "vait": 4831,
      "chia": 4832,
      "nie": 4833,
      "demon": 4834,
      "pahadi": 4835,
      "redi": 4836,
      "puro": 4837,
      "araja": 4838,
      "aliyan": 4839,
      "cover": 4840,
      "moun": 4841,
      "mole": 4842,
      "megha": 4843,
      "baru": 4844,
      "jodi": 4845,
      "confi": 4846,
      "amayi": 4847,
      "vyapi": 4848,
      "swad": 4849,
      "taman": 4850,
      "tamil": 4851,
      "mitta": 4852,
      "wadiyon": 4853,
      "plus": 4854,
      "metry": 4855,
      "chitran": 4856,
      "tatt": 4857,
      "xide": 4858,
      "bazon": 4859,
      "reddy": 4860,
      "white": 4861,
      "vyavahar": 4862,
      "bhrashta": 4863,
      "nanda": 4864,
      "arsh": 4865,
      "hash": 4866,
      "rakha": 4867,
      "onka": 4868,
      "enko": 4869,
      "askar": 4870,
      "vachak": 4871,
      "arian": 4872,
      "nisar": 4873,
      "siti": 4874,
      "lekhan": 4875,
      "mishra": 4876,
      "bihari": 4877,
      "sambhal": 4878,
      "patna": 4879,
      "sansar": 4880,
      "dhyaksh": 4881,
      "kalp": 4882,
      "guli": 4883,
      "dhiya": 4884,
      "kuch": 4885,
      "kusha": 4886,
      "takh": 4887,
      "shobha": 4888,
      "vatar": 4889,
      "chhud": 4890,
      "croft": 4891,
      "peth": 4892,
      "bhagwat": 4893,
      "yogita": 4894,
      "pramanech": 4895,
      "thyro": 4896,
      "position": 4897,
      "ffe": 4898,
      "flat": 4899,
      "gak": 4900,
      "kers": 4901,
      "opa": 4902,
      "qur": 4903,
      "rn": 4904,
      "tadi": 4905,
      "hade": 4906,
      "ason": 4907,
      "viki": 4908,
      "tair": 4909,
      "yansah": 4910,
      "saura": 4911,
      "nacha": 4912,
      "atiyon": 4913,
      "alay": 4914,
      "miyan": 4915,
      "heb": 4916,
      "hex": 4917,
      "ramji": 4918,
      "pose": 4919,
      "cheta": 4920,
      "file": 4921,
      "vansha": 4922,
      "daru": 4923,
      "jol": 4924,
      "chhad": 4925,
      "deshi": 4926,
      "alok": 4927,
      "clean": 4928,
      "short": 4929,
      "samuh": 4930,
      "flex": 4931,
      "mahesh": 4932,
      "jayanti": 4933,
      "aun": 4934,
      "ep": 4935,
      "ij": 4936,
      "ile": 4937,
      "ote": 4938,
      "ying": 4939,
      "tile": 4940,
      "vian": 4941,
      "lagh": 4942,
      "disc": 4943,
      "safi": 4944,
      "kain": 4945,
      "vaen": 4946,
      "arikaran": 4947,
      "hou": 4948,
      "hesh": 4949,
      "pras": 4950,
      "pramuk": 4951,
      "kisan": 4952,
      "samasya": 4953,
      "ataen": 4954,
      "pich": 4955,
      "piyan": 4956,
      "sankat": 4957,
      "dhen": 4958,
      "bhandar": 4959,
      "madhav": 4960,
      "soi": 4961,
      "bard": 4962,
      "baron": 4963,
      "rangi": 4964,
      "atey": 4965,
      "bhishek": 4966,
      "kamna": 4967,
      "fah": 4968,
      "jori": 4969,
      "jug": 4970,
      "vatta": 4971,
      "sangam": 4972,
      "sahab": 4973,
      "vriti": 4974,
      "jyotir": 4975,
      "tulsi": 4976,
      "bacteri": 4977,
      "dres": 4978,
      "jand": 4979,
      "jel": 4980,
      "kkar": 4981,
      "oper": 4982,
      "oria": 4983,
      "schi": 4984,
      "arch": 4985,
      "infra": 4986,
      "adin": 4987,
      "amra": 4988,
      "amul": 4989,
      "ener": 4990,
      "akshan": 4991,
      "vim": 4992,
      "laf": 4993,
      "harpur": 4994,
      "state": 4995,
      "sthani": 4996,
      "atiya": 4997,
      "udu": 4998,
      "bhata": 4999
    },
    "merges": [
      [
        "a",
        "n"
      ],
      [
        "a",
        "r"
      ],
      [
        "h",
        "a"
      ],
      [
        "a",
        "t"
      ],
      [
        "a",
        "l"
      ],
      [
        "h",
        "i"
      ],
      [
        "r",
        "a"
      ],
      [
        "o",
        "n"
      ],
      [
        "i",
        "n"
      ],
      [
        "y",
        "a"
      ],
      [
        "s",
        "h"
      ],
      [
        "a",
        "d"
      ],
      [
        "c",
        "h"
      ],
      [
        "a",
        "m"
      ],
      [
        "r",
        "i"
      ],
      [
        "e",
        "n"
      ],
      [
        "a",
        "s"
      ],
      [
        "e",
        "r"
      ],
      [
        "a",
        "k"
      ],
      [
        "t",
        "i"
      ],
      [
        "u",
        "r"
      ],
      [
        "u",
        "n"
      ],
      [
        "v",
        "i"
      ],
      [
        "t",
        "a"
      ],
      [
        "l",
        "a"
      ],
      [
        "an",
        "d"
      ],
      [
        "h",
        "ar"
      ],
      [
        "k",
        "ar"
      ],
      [
        "l",
        "i"
      ],
      [
        "m",
        "a"
      ],
      [
        "e",
        "s"
      ],
      [
        "d",
        "i"
      ],
      [
        "c",
        "ha"
      ],
      [
        "h",
        "an"
      ],
      [
        "o",
        "r"
      ],
      [
        "i",
        "t"
      ],
      [
        "s",
        "ha"
      ],
      [
        "s",
        "t"
      ],
      [
        "b",
        "a"
      ],
      [
        "y",
        "an"
      ],
      [
        "u",
        "l"
      ],
      [
        "s",
        "a"
      ],
      [
        "k",
        "a"
      ],
      [
        "n",
        "a"
      ],
      [
        "m",
        "an"
      ],
      [
        "at",
        "i"
      ],
      [
        "u",
        "d"
      ],
      [
        "v",
        "a"
      ],
      [
        "ar",
        "i"
      ],
      [
        "r",
        "o"
      ],
      [
        "e",
        "l"
      ],
      [
        "c",
        "hi"
      ],
      [
        "b",
        "ha"
      ],
      [
        "u",
        "t"
      ],
      [
        "g",
        "a"
      ],
      [
        "n",
        "i"
      ],
      [
        "s",
        "i"
      ],
      [
        "u",
        "k"
      ],
      [
        "e",
        "t"
      ],
      [
        "d",
        "a"
      ],
      [
        "s",
        "hi"
      ],
      [
        "d",
        "e"
      ],
      [
        "u",
        "m"
      ],
      [
        "p",
        "a"
      ],
      [
        "h",
        "o"
      ],
      [
        "in",
        "g"
      ],
      [
        "al",
        "a"
      ],
      [
        "j",
        "i"
      ],
      [
        "g",
        "i"
      ],
      [
        "l",
        "e"
      ],
      [
        "r",
        "e"
      ],
      [
        "j",
        "a"
      ],
      [
        "p",
        "ur"
      ],
      [
        "an",
        "i"
      ],
      [
        "m",
        "i"
      ],
      [
        "ar",
        "a"
      ],
      [
        "b",
        "i"
      ],
      [
        "h",
        "e"
      ],
      [
        "p",
        "ra"
      ],
      [
        "k",
        "i"
      ],
      [
        "u",
        "s"
      ],
      [
        "an",
        "a"
      ],
      [
        "an",
        "g"
      ],
      [
        "an",
        "t"
      ],
      [
        "al",
        "i"
      ],
      [
        "u",
        "p"
      ],
      [
        "l",
        "o"
      ],
      [
        "y",
        "on"
      ],
      [
        "p",
        "ar"
      ],
      [
        "s",
        "am"
      ],
      [
        "v",
        "ar"
      ],
      [
        "k",
        "o"
      ],
      [
        "h",
        "u"
      ],
      [
        "t",
        "e"
      ],
      [
        "at",
        "a"
      ],
      [
        "y",
        "e"
      ],
      [
        "c",
        "o"
      ],
      [
        "s",
        "e"
      ],
      [
        "w",
        "a"
      ],
      [
        "m",
        "o"
      ],
      [
        "ad",
        "i"
      ],
      [
        "ra",
        "m"
      ],
      [
        "w",
        "ar"
      ],
      [
        "p",
        "i"
      ],
      [
        "p",
        "o"
      ],
      [
        "e",
        "d"
      ],
      [
        "g",
        "ar"
      ],
      [
        "k",
        "ha"
      ],
      [
        "p",
        "at"
      ],
      [
        "p",
        "u"
      ],
      [
        "y",
        "o"
      ],
      [
        "ch",
        "e"
      ],
      [
        "g",
        "o"
      ],
      [
        "k",
        "h"
      ],
      [
        "n",
        "e"
      ],
      [
        "k",
        "e"
      ],
      [
        "p",
        "r"
      ],
      [
        "s",
        "an"
      ],
      [
        "ha",
        "t"
      ],
      [
        "b",
        "o"
      ],
      [
        "an",
        "e"
      ],
      [
        "s",
        "u"
      ],
      [
        "d",
        "h"
      ],
      [
        "f",
        "i"
      ],
      [
        "m",
        "e"
      ],
      [
        "t",
        "o"
      ],
      [
        "s",
        "ar"
      ],
      [
        "b",
        "h"
      ],
      [
        "ch",
        "ya"
      ],
      [
        "v",
        "e"
      ],
      [
        "m",
        "ad"
      ],
      [
        "d",
        "ha"
      ],
      [
        "j",
        "an"
      ],
      [
        "v",
        "an"
      ],
      [
        "t",
        "h"
      ],
      [
        "v",
        "as"
      ],
      [
        "s",
        "o"
      ],
      [
        "b",
        "ar"
      ],
      [
        "g",
        "e"
      ],
      [
        "p",
        "an"
      ],
      [
        "k",
        "al"
      ],
      [
        "d",
        "ar"
      ],
      [
        "m",
        "ar"
      ],
      [
        "en",
        "t"
      ],
      [
        "hi",
        "n"
      ],
      [
        "d",
        "o"
      ],
      [
        "r",
        "an"
      ],
      [
        "b",
        "e"
      ],
      [
        "at",
        "e"
      ],
      [
        "b",
        "ad"
      ],
      [
        "sh",
        "an"
      ],
      [
        "ra",
        "j"
      ],
      [
        "p",
        "e"
      ],
      [
        "w",
        "al"
      ],
      [
        "t",
        "ha"
      ],
      [
        "r",
        "u"
      ],
      [
        "k",
        "an"
      ],
      [
        "ch",
        "ar"
      ],
      [
        "en",
        "d"
      ],
      [
        "p",
        "ad"
      ],
      [
        "s",
        "at"
      ],
      [
        "p",
        "al"
      ],
      [
        "in",
        "d"
      ],
      [
        "ri",
        "t"
      ],
      [
        "c",
        "k"
      ],
      [
        "g",
        "an"
      ],
      [
        "t",
        "ar"
      ],
      [
        "m",
        "u"
      ],
      [
        "i",
        "l"
      ],
      [
        "d",
        "har"
      ],
      [
        "y",
        "at"
      ],
      [
        "b",
        "hi"
      ],
      [
        "ati",
        "on"
      ],
      [
        "in",
        "i"
      ],
      [
        "g",
        "h"
      ],
      [
        "b",
        "al"
      ],
      [
        "g",
        "u"
      ],
      [
        "m",
        "at"
      ],
      [
        "ha",
        "l"
      ],
      [
        "er",
        "s"
      ],
      [
        "d",
        "hi"
      ],
      [
        "v",
        "ad"
      ],
      [
        "k",
        "am"
      ],
      [
        "d",
        "u"
      ],
      [
        "i",
        "r"
      ],
      [
        "k",
        "u"
      ],
      [
        "f",
        "a"
      ],
      [
        "d",
        "han"
      ],
      [
        "t",
        "ra"
      ],
      [
        "b",
        "har"
      ],
      [
        "ya",
        "k"
      ],
      [
        "at",
        "h"
      ],
      [
        "i",
        "s"
      ],
      [
        "b",
        "u"
      ],
      [
        "b",
        "and"
      ],
      [
        "ch",
        "and"
      ],
      [
        "c",
        "e"
      ],
      [
        "m",
        "al"
      ],
      [
        "j",
        "o"
      ],
      [
        "c",
        "on"
      ],
      [
        "v",
        "al"
      ],
      [
        "t",
        "ri"
      ],
      [
        "g",
        "ra"
      ],
      [
        "c",
        "i"
      ],
      [
        "b",
        "an"
      ],
      [
        "y",
        "i"
      ],
      [
        "l",
        "u"
      ],
      [
        "k",
        "at"
      ],
      [
        "in",
        "e"
      ],
      [
        "a",
        "p"
      ],
      [
        "n",
        "o"
      ],
      [
        "mad",
        "h"
      ],
      [
        "k",
        "ad"
      ],
      [
        "r",
        "at"
      ],
      [
        "ma",
        "ha"
      ],
      [
        "un",
        "d"
      ],
      [
        "am",
        "a"
      ],
      [
        "t",
        "er"
      ],
      [
        "m",
        "uk"
      ],
      [
        "in",
        "a"
      ],
      [
        "t",
        "hi"
      ],
      [
        "har",
        "i"
      ],
      [
        "y",
        "ar"
      ],
      [
        "k",
        "sha"
      ],
      [
        "m",
        "ak"
      ],
      [
        "kar",
        "an"
      ],
      [
        "sh",
        "e"
      ],
      [
        "o",
        "l"
      ],
      [
        "p",
        "ari"
      ],
      [
        "p",
        "ak"
      ],
      [
        "y",
        "u"
      ],
      [
        "b",
        "at"
      ],
      [
        "m",
        "as"
      ],
      [
        "v",
        "ya"
      ],
      [
        "b",
        "er"
      ],
      [
        "t",
        "u"
      ],
      [
        "k",
        "ri"
      ],
      [
        "un",
        "i"
      ],
      [
        "w",
        "ala"
      ],
      [
        "l",
        "ak"
      ],
      [
        "ad",
        "a"
      ],
      [
        "p",
        "ro"
      ],
      [
        "k",
        "hi"
      ],
      [
        "g",
        "ha"
      ],
      [
        "r",
        "on"
      ],
      [
        "i",
        "d"
      ],
      [
        "c",
        "t"
      ],
      [
        "ya",
        "m"
      ],
      [
        "t",
        "ak"
      ],
      [
        "kar",
        "i"
      ],
      [
        "v",
        "ak"
      ],
      [
        "un",
        "a"
      ],
      [
        "j",
        "u"
      ],
      [
        "s",
        "w"
      ],
      [
        "t",
        "an"
      ],
      [
        "v",
        "er"
      ],
      [
        "sh",
        "o"
      ],
      [
        "p",
        "as"
      ],
      [
        "j",
        "ha"
      ],
      [
        "y",
        "en"
      ],
      [
        "l",
        "y"
      ],
      [
        "ch",
        "ha"
      ],
      [
        "f",
        "o"
      ],
      [
        "v",
        "at"
      ],
      [
        "b",
        "as"
      ],
      [
        "pu",
        "ra"
      ],
      [
        "s",
        "on"
      ],
      [
        "a",
        "g"
      ],
      [
        "s",
        "ad"
      ],
      [
        "i",
        "m"
      ],
      [
        "c",
        "a"
      ],
      [
        "j",
        "e"
      ],
      [
        "s",
        "ing"
      ],
      [
        "c",
        "ar"
      ],
      [
        "g",
        "at"
      ],
      [
        "m",
        "on"
      ],
      [
        "k",
        "as"
      ],
      [
        "g",
        "al"
      ],
      [
        "t",
        "on"
      ],
      [
        "k",
        "on"
      ],
      [
        "t",
        "am"
      ],
      [
        "d",
        "in"
      ],
      [
        "co",
        "m"
      ],
      [
        "g",
        "ad"
      ],
      [
        "z",
        "a"
      ],
      [
        "g",
        "ur"
      ],
      [
        "s",
        "ang"
      ],
      [
        "sh",
        "ar"
      ],
      [
        "vi",
        "d"
      ],
      [
        "sh",
        "war"
      ],
      [
        "b",
        "ra"
      ],
      [
        "ti",
        "on"
      ],
      [
        "l",
        "an"
      ],
      [
        "n",
        "am"
      ],
      [
        "hi",
        "t"
      ],
      [
        "u",
        "ra"
      ],
      [
        "m",
        "and"
      ],
      [
        "l",
        "al"
      ],
      [
        "p",
        "er"
      ],
      [
        "f",
        "or"
      ],
      [
        "har",
        "a"
      ],
      [
        "ha",
        "m"
      ],
      [
        "vi",
        "sh"
      ],
      [
        "k",
        "han"
      ],
      [
        "ant",
        "ar"
      ],
      [
        "de",
        "v"
      ],
      [
        "z",
        "i"
      ],
      [
        "s",
        "al"
      ],
      [
        "k",
        "he"
      ],
      [
        "ud",
        "a"
      ],
      [
        "j",
        "al"
      ],
      [
        "b",
        "hu"
      ],
      [
        "w",
        "as"
      ],
      [
        "m",
        "ul"
      ],
      [
        "m",
        "ent"
      ],
      [
        "c",
        "al"
      ],
      [
        "n",
        "ar"
      ],
      [
        "p",
        "un"
      ],
      [
        "r",
        "es"
      ],
      [
        "l",
        "l"
      ],
      [
        "t",
        "al"
      ],
      [
        "w",
        "i"
      ],
      [
        "d",
        "as"
      ],
      [
        "g",
        "en"
      ],
      [
        "s",
        "ak"
      ],
      [
        "p",
        "re"
      ],
      [
        "v",
        "o"
      ],
      [
        "w",
        "an"
      ],
      [
        "s",
        "in"
      ],
      [
        "j",
        "am"
      ],
      [
        "t",
        "y"
      ],
      [
        "h",
        "y"
      ],
      [
        "s",
        "ur"
      ],
      [
        "madh",
        "ye"
      ],
      [
        "m",
        "it"
      ],
      [
        "s",
        "en"
      ],
      [
        "pr",
        "ati"
      ],
      [
        "j",
        "h"
      ],
      [
        "va",
        "i"
      ],
      [
        "ad",
        "hi"
      ],
      [
        "d",
        "an"
      ],
      [
        "j",
        "ar"
      ],
      [
        "ni",
        "r"
      ],
      [
        "ba",
        "i"
      ],
      [
        "ch",
        "an"
      ],
      [
        "w",
        "ali"
      ],
      [
        "g",
        "am"
      ],
      [
        "w",
        "adi"
      ],
      [
        "ad",
        "e"
      ],
      [
        "b",
        "ak"
      ],
      [
        "end",
        "ra"
      ],
      [
        "ch",
        "o"
      ],
      [
        "man",
        "i"
      ],
      [
        "g",
        "un"
      ],
      [
        "l",
        "am"
      ],
      [
        "el",
        "e"
      ],
      [
        "ad",
        "h"
      ],
      [
        "f",
        "e"
      ],
      [
        "a",
        "b"
      ],
      [
        "q",
        "u"
      ],
      [
        "v",
        "in"
      ],
      [
        "m",
        "en"
      ],
      [
        "vi",
        "r"
      ],
      [
        "d",
        "al"
      ],
      [
        "v",
        "en"
      ],
      [
        "sh",
        "u"
      ],
      [
        "and",
        "a"
      ],
      [
        "p",
        "it"
      ],
      [
        "v",
        "adi"
      ],
      [
        "u",
        "li"
      ],
      [
        "ti",
        "c"
      ],
      [
        "p",
        "ri"
      ],
      [
        "chi",
        "n"
      ],
      [
        "k",
        "um"
      ],
      [
        "g",
        "hat"
      ],
      [
        "el",
        "l"
      ],
      [
        "p",
        "l"
      ],
      [
        "d",
        "ur"
      ],
      [
        "ak",
        "ar"
      ],
      [
        "y",
        "al"
      ],
      [
        "b",
        "ho"
      ],
      [
        "h",
        "on"
      ],
      [
        "t",
        "r"
      ],
      [
        "f",
        "ar"
      ],
      [
        "sat",
        "hi"
      ],
      [
        "u",
        "ri"
      ],
      [
        "bha",
        "v"
      ],
      [
        "k",
        "ho"
      ],
      [
        "s",
        "ri"
      ],
      [
        "a",
        "sh"
      ],
      [
        "s",
        "k"
      ],
      [
        "j",
        "it"
      ],
      [
        "i",
        "ya"
      ],
      [
        "c",
        "y"
      ],
      [
        "ra",
        "k"
      ],
      [
        "w",
        "at"
      ],
      [
        "b",
        "han"
      ],
      [
        "e",
        "x"
      ],
      [
        "m",
        "et"
      ],
      [
        "m",
        "in"
      ],
      [
        "k",
        "har"
      ],
      [
        "c",
        "or"
      ],
      [
        "p",
        "ara"
      ],
      [
        "na",
        "gar"
      ],
      [
        "hi",
        "l"
      ],
      [
        "g",
        "ri"
      ],
      [
        "g",
        "y"
      ],
      [
        "la",
        "h"
      ],
      [
        "and",
        "i"
      ],
      [
        "p",
        "or"
      ],
      [
        "a",
        "v"
      ],
      [
        "b",
        "ud"
      ],
      [
        "g",
        "r"
      ],
      [
        "cha",
        "k"
      ],
      [
        "i",
        "k"
      ],
      [
        "n",
        "ak"
      ],
      [
        "d",
        "on"
      ],
      [
        "i",
        "a"
      ],
      [
        "cha",
        "l"
      ],
      [
        "sh",
        "t"
      ],
      [
        "f",
        "f"
      ],
      [
        "n",
        "an"
      ],
      [
        "p",
        "ati"
      ],
      [
        "b",
        "ri"
      ],
      [
        "d",
        "es"
      ],
      [
        "l",
        "in"
      ],
      [
        "s",
        "uk"
      ],
      [
        "s",
        "un"
      ],
      [
        "s",
        "c"
      ],
      [
        "n",
        "at"
      ],
      [
        "k",
        "un"
      ],
      [
        "m",
        "ur"
      ],
      [
        "i",
        "c"
      ],
      [
        "n",
        "as"
      ],
      [
        "es",
        "s"
      ],
      [
        "b",
        "ur"
      ],
      [
        "m",
        "un"
      ],
      [
        "ch",
        "h"
      ],
      [
        "sa",
        "h"
      ],
      [
        "ha",
        "i"
      ],
      [
        "ha",
        "k"
      ],
      [
        "st",
        "e"
      ],
      [
        "g",
        "ya"
      ],
      [
        "ind",
        "er"
      ],
      [
        "y",
        "uk"
      ],
      [
        "sam",
        "a"
      ],
      [
        "b",
        "en"
      ],
      [
        "g",
        "on"
      ],
      [
        "an",
        "u"
      ],
      [
        "k",
        "ul"
      ],
      [
        "k",
        "ur"
      ],
      [
        "o",
        "t"
      ],
      [
        "r",
        "up"
      ],
      [
        "w",
        "e"
      ],
      [
        "g",
        "yan"
      ],
      [
        "e",
        "k"
      ],
      [
        "w",
        "ad"
      ],
      [
        "l",
        "on"
      ],
      [
        "n",
        "u"
      ],
      [
        "l",
        "as"
      ],
      [
        "t",
        "ur"
      ],
      [
        "d",
        "ak"
      ],
      [
        "d",
        "en"
      ],
      [
        "wal",
        "e"
      ],
      [
        "y",
        "ata"
      ],
      [
        "o",
        "s"
      ],
      [
        "i",
        "yon"
      ],
      [
        "sing",
        "h"
      ],
      [
        "ch",
        "u"
      ],
      [
        "m",
        "er"
      ],
      [
        "d",
        "ra"
      ],
      [
        "f",
        "er"
      ],
      [
        "v",
        "ari"
      ],
      [
        "p",
        "en"
      ],
      [
        "a",
        "c"
      ],
      [
        "b",
        "r"
      ],
      [
        "chi",
        "t"
      ],
      [
        "as",
        "t"
      ],
      [
        "chand",
        "ra"
      ],
      [
        "sh",
        "ri"
      ],
      [
        "d",
        "er"
      ],
      [
        "ha",
        "s"
      ],
      [
        "f",
        "al"
      ],
      [
        "a",
        "bhi"
      ],
      [
        "kar",
        "a"
      ],
      [
        "w",
        "ari"
      ],
      [
        "m",
        "or"
      ],
      [
        "d",
        "am"
      ],
      [
        "at",
        "hi"
      ],
      [
        "p",
        "ut"
      ],
      [
        "pu",
        "ri"
      ],
      [
        "t",
        "s"
      ],
      [
        "t",
        "he"
      ],
      [
        "sha",
        "k"
      ],
      [
        "han",
        "a"
      ],
      [
        "g",
        "har"
      ],
      [
        "b",
        "le"
      ],
      [
        "bha",
        "i"
      ],
      [
        "t",
        "at"
      ],
      [
        "vi",
        "l"
      ],
      [
        "g",
        "er"
      ],
      [
        "z",
        "ar"
      ],
      [
        "ba",
        "h"
      ],
      [
        "v",
        "ed"
      ],
      [
        "v",
        "es"
      ],
      [
        "y",
        "ala"
      ],
      [
        "si",
        "d"
      ],
      [
        "s",
        "wa"
      ],
      [
        "am",
        "i"
      ],
      [
        "as",
        "a"
      ],
      [
        "p",
        "on"
      ],
      [
        "c",
        "ro"
      ],
      [
        "t",
        "en"
      ],
      [
        "na",
        "v"
      ],
      [
        "gi",
        "ri"
      ],
      [
        "al",
        "e"
      ],
      [
        "s",
        "m"
      ],
      [
        "s",
        "and"
      ],
      [
        "p",
        "et"
      ],
      [
        "r",
        "in"
      ],
      [
        "k",
        "sh"
      ],
      [
        "f",
        "ul"
      ],
      [
        "ha",
        "d"
      ],
      [
        "k",
        "in"
      ],
      [
        "s",
        "ta"
      ],
      [
        "b",
        "ul"
      ],
      [
        "r",
        "en"
      ],
      [
        "ra",
        "i"
      ],
      [
        "e",
        "m"
      ],
      [
        "ga",
        "on"
      ],
      [
        "gar",
        "h"
      ],
      [
        "b",
        "in"
      ],
      [
        "k",
        "ala"
      ],
      [
        "yan",
        "t"
      ],
      [
        "a",
        "i"
      ],
      [
        "r",
        "y"
      ],
      [
        "h",
        "un"
      ],
      [
        "b",
        "el"
      ],
      [
        "han",
        "i"
      ],
      [
        "s",
        "up"
      ],
      [
        "n",
        "et"
      ],
      [
        "l",
        "at"
      ],
      [
        "a",
        "u"
      ],
      [
        "k",
        "hu"
      ],
      [
        "g",
        "ho"
      ],
      [
        "b",
        "on"
      ],
      [
        "muk",
        "h"
      ],
      [
        "k",
        "ak"
      ],
      [
        "shi",
        "v"
      ],
      [
        "yo",
        "g"
      ],
      [
        "s",
        "er"
      ],
      [
        "t",
        "in"
      ],
      [
        "s",
        "y"
      ],
      [
        "di",
        "a"
      ],
      [
        "vi",
        "t"
      ],
      [
        "gan",
        "j"
      ],
      [
        "pr",
        "at"
      ],
      [
        "ti",
        "l"
      ],
      [
        "bha",
        "g"
      ],
      [
        "r",
        "ang"
      ],
      [
        "b",
        "he"
      ],
      [
        "e",
        "sh"
      ],
      [
        "de",
        "sh"
      ],
      [
        "lo",
        "k"
      ],
      [
        "m",
        "us"
      ],
      [
        "s",
        "war"
      ],
      [
        "st",
        "an"
      ],
      [
        "g",
        "ul"
      ],
      [
        "k",
        "it"
      ],
      [
        "l",
        "en"
      ],
      [
        "sa",
        "ha"
      ],
      [
        "f",
        "u"
      ],
      [
        "p",
        "ani"
      ],
      [
        "si",
        "on"
      ],
      [
        "ri",
        "ya"
      ],
      [
        "l",
        "ad"
      ],
      [
        "m",
        "c"
      ],
      [
        "ta",
        "on"
      ],
      [
        "ra",
        "sh"
      ],
      [
        "ti",
        "r"
      ],
      [
        "shi",
        "l"
      ],
      [
        "us",
        "ar"
      ],
      [
        "k",
        "ut"
      ],
      [
        "ti",
        "k"
      ],
      [
        "l",
        "es"
      ],
      [
        "p",
        "in"
      ],
      [
        "bi",
        "r"
      ],
      [
        "p",
        "t"
      ],
      [
        "st",
        "o"
      ],
      [
        "ra",
        "s"
      ],
      [
        "it",
        "y"
      ],
      [
        "kad",
        "e"
      ],
      [
        "ya",
        "s"
      ],
      [
        "le",
        "y"
      ],
      [
        "a",
        "h"
      ],
      [
        "v",
        "ani"
      ],
      [
        "t",
        "han"
      ],
      [
        "ti",
        "s"
      ],
      [
        "pa",
        "i"
      ],
      [
        "j",
        "at"
      ],
      [
        "b",
        "or"
      ],
      [
        "la",
        "i"
      ],
      [
        "g",
        "ram"
      ],
      [
        "z",
        "o"
      ],
      [
        "w",
        "ara"
      ],
      [
        "n",
        "er"
      ],
      [
        "g",
        "ari"
      ],
      [
        "j",
        "as"
      ],
      [
        "v",
        "ali"
      ],
      [
        "hi",
        "r"
      ],
      [
        "u",
        "sh"
      ],
      [
        "l",
        "er"
      ],
      [
        "ri",
        "a"
      ],
      [
        "b",
        "ara"
      ],
      [
        "bra",
        "h"
      ],
      [
        "un",
        "g"
      ],
      [
        "l",
        "ing"
      ],
      [
        "si",
        "s"
      ],
      [
        "f",
        "y"
      ],
      [
        "j",
        "ak"
      ],
      [
        "sh",
        "ra"
      ],
      [
        "pur",
        "na"
      ],
      [
        "m",
        "am"
      ],
      [
        "v",
        "ri"
      ],
      [
        "b",
        "it"
      ],
      [
        "d",
        "ri"
      ],
      [
        "un",
        "ga"
      ],
      [
        "w",
        "ani"
      ],
      [
        "h",
        "er"
      ],
      [
        "ch",
        "hi"
      ],
      [
        "vi",
        "k"
      ],
      [
        "mi",
        "l"
      ],
      [
        "sha",
        "m"
      ],
      [
        "t",
        "ran"
      ],
      [
        "ti",
        "yan"
      ],
      [
        "cha",
        "m"
      ],
      [
        "ud",
        "din"
      ],
      [
        "ki",
        "r"
      ],
      [
        "c",
        "s"
      ],
      [
        "st",
        "ha"
      ],
      [
        "s",
        "it"
      ],
      [
        "t",
        "as"
      ],
      [
        "li",
        "a"
      ],
      [
        "ar",
        "am"
      ],
      [
        "h",
        "en"
      ],
      [
        "m",
        "ati"
      ],
      [
        "st",
        "ra"
      ],
      [
        "z",
        "e"
      ],
      [
        "s",
        "ul"
      ],
      [
        "p",
        "s"
      ],
      [
        "sha",
        "h"
      ],
      [
        "ko",
        "t"
      ],
      [
        "d",
        "s"
      ],
      [
        "um",
        "i"
      ],
      [
        "pad",
        "a"
      ],
      [
        "ur",
        "e"
      ],
      [
        "b",
        "ari"
      ],
      [
        "v",
        "ati"
      ],
      [
        "f",
        "t"
      ],
      [
        "es",
        "t"
      ],
      [
        "or",
        "e"
      ],
      [
        "k",
        "ali"
      ],
      [
        "ka",
        "sh"
      ],
      [
        "d",
        "at"
      ],
      [
        "u",
        "la"
      ],
      [
        "v",
        "el"
      ],
      [
        "kar",
        "ya"
      ],
      [
        "n",
        "ath"
      ],
      [
        "ma",
        "h"
      ],
      [
        "g",
        "and"
      ],
      [
        "l",
        "and"
      ],
      [
        "j",
        "ana"
      ],
      [
        "p",
        "y"
      ],
      [
        "ti",
        "yon"
      ],
      [
        "vi",
        "sha"
      ],
      [
        "bha",
        "t"
      ],
      [
        "d",
        "y"
      ],
      [
        "n",
        "it"
      ],
      [
        "m",
        "ut"
      ],
      [
        "ya",
        "chi"
      ],
      [
        "g",
        "in"
      ],
      [
        "m",
        "ud"
      ],
      [
        "sa",
        "i"
      ],
      [
        "s",
        "ud"
      ],
      [
        "ya",
        "che"
      ],
      [
        "d",
        "ho"
      ],
      [
        "man",
        "a"
      ],
      [
        "bi",
        "l"
      ],
      [
        "or",
        "s"
      ],
      [
        "j",
        "in"
      ],
      [
        "ja",
        "g"
      ],
      [
        "kh",
        "and"
      ],
      [
        "f",
        "an"
      ],
      [
        "lo",
        "gy"
      ],
      [
        "as",
        "hi"
      ],
      [
        "ar",
        "o"
      ],
      [
        "shi",
        "n"
      ],
      [
        "t",
        "ho"
      ],
      [
        "as",
        "i"
      ],
      [
        "ka",
        "i"
      ],
      [
        "ch",
        "en"
      ],
      [
        "ja",
        "y"
      ],
      [
        "s",
        "ti"
      ],
      [
        "kum",
        "ar"
      ],
      [
        "j",
        "on"
      ],
      [
        "me",
        "in"
      ],
      [
        "yuk",
        "t"
      ],
      [
        "ma",
        "j"
      ],
      [
        "m",
        "y"
      ],
      [
        "ak",
        "i"
      ],
      [
        "s",
        "ant"
      ],
      [
        "st",
        "ri"
      ],
      [
        "hi",
        "ya"
      ],
      [
        "di",
        "l"
      ],
      [
        "g",
        "han"
      ],
      [
        "p",
        "ul"
      ],
      [
        "n",
        "ya"
      ],
      [
        "pat",
        "ra"
      ],
      [
        "c",
        "tion"
      ],
      [
        "s",
        "ara"
      ],
      [
        "w",
        "or"
      ],
      [
        "e",
        "in"
      ],
      [
        "di",
        "p"
      ],
      [
        "ta",
        "i"
      ],
      [
        "a",
        "f"
      ],
      [
        "k",
        "en"
      ],
      [
        "gi",
        "r"
      ],
      [
        "m",
        "ala"
      ],
      [
        "ul",
        "lah"
      ],
      [
        "c",
        "ul"
      ],
      [
        "ma",
        "g"
      ],
      [
        "bha",
        "k"
      ],
      [
        "shi",
        "t"
      ],
      [
        "ma",
        "i"
      ],
      [
        "k",
        "es"
      ],
      [
        "w",
        "ada"
      ],
      [
        "sh",
        "ya"
      ],
      [
        "on",
        "e"
      ],
      [
        "ra",
        "h"
      ],
      [
        "l",
        "ar"
      ],
      [
        "b",
        "am"
      ],
      [
        "p",
        "and"
      ],
      [
        "u",
        "pa"
      ],
      [
        "m",
        "ari"
      ],
      [
        "st",
        "er"
      ],
      [
        "ba",
        "bat"
      ],
      [
        "ma",
        "hi"
      ],
      [
        "kri",
        "sh"
      ],
      [
        "ch",
        "ari"
      ],
      [
        "ye",
        "ga"
      ],
      [
        "par",
        "am"
      ],
      [
        "fi",
        "l"
      ],
      [
        "in",
        "t"
      ],
      [
        "b",
        "ro"
      ],
      [
        "la",
        "g"
      ],
      [
        "ni",
        "sh"
      ],
      [
        "war",
        "e"
      ],
      [
        "s",
        "s"
      ],
      [
        "p",
        "ali"
      ],
      [
        "c",
        "es"
      ],
      [
        "d",
        "ari"
      ],
      [
        "mi",
        "r"
      ],
      [
        "b",
        "ut"
      ],
      [
        "d",
        "ro"
      ],
      [
        "kar",
        "ta"
      ],
      [
        "yan",
        "e"
      ],
      [
        "pat",
        "h"
      ],
      [
        "pat",
        "ti"
      ],
      [
        "p",
        "p"
      ],
      [
        "k",
        "and"
      ],
      [
        "sh",
        "ti"
      ],
      [
        "j",
        "han"
      ],
      [
        "ak",
        "h"
      ],
      [
        "lo",
        "gi"
      ],
      [
        "sin",
        "h"
      ],
      [
        "m",
        "ed"
      ],
      [
        "gur",
        "u"
      ],
      [
        "or",
        "o"
      ],
      [
        "e",
        "ri"
      ],
      [
        "in",
        "ter"
      ],
      [
        "li",
        "s"
      ],
      [
        "ra",
        "v"
      ],
      [
        "j",
        "hi"
      ],
      [
        "k",
        "er"
      ],
      [
        "g",
        "ang"
      ],
      [
        "n",
        "al"
      ],
      [
        "f",
        "en"
      ],
      [
        "man",
        "e"
      ],
      [
        "ja",
        "i"
      ],
      [
        "c",
        "u"
      ],
      [
        "ha",
        "la"
      ],
      [
        "sa",
        "v"
      ],
      [
        "n",
        "ad"
      ],
      [
        "k",
        "et"
      ],
      [
        "an",
        "ti"
      ],
      [
        "b",
        "ang"
      ],
      [
        "k",
        "ant"
      ],
      [
        "ak",
        "a"
      ],
      [
        "ja",
        "ya"
      ],
      [
        "n",
        "on"
      ],
      [
        "ma",
        "y"
      ],
      [
        "ba",
        "g"
      ],
      [
        "s",
        "as"
      ],
      [
        "f",
        "at"
      ],
      [
        "o",
        "d"
      ],
      [
        "co",
        "l"
      ],
      [
        "st",
        "ar"
      ],
      [
        "g",
        "ud"
      ],
      [
        "yan",
        "a"
      ],
      [
        "char",
        "ya"
      ],
      [
        "man",
        "o"
      ],
      [
        "si",
        "l"
      ],
      [
        "r",
        "ud"
      ],
      [
        "k",
        "ta"
      ],
      [
        "cha",
        "t"
      ],
      [
        "ar",
        "y"
      ],
      [
        "na",
        "g"
      ],
      [
        "par",
        "yant"
      ],
      [
        "an",
        "o"
      ],
      [
        "m",
        "el"
      ],
      [
        "t",
        "ro"
      ],
      [
        "ya",
        "var"
      ],
      [
        "bi",
        "o"
      ],
      [
        "dha",
        "m"
      ],
      [
        "f",
        "in"
      ],
      [
        "s",
        "ut"
      ],
      [
        "ch",
        "hat"
      ],
      [
        "b",
        "ali"
      ],
      [
        "pas",
        "un"
      ],
      [
        "b",
        "adi"
      ],
      [
        "u",
        "ch"
      ],
      [
        "b",
        "ala"
      ],
      [
        "va",
        "sh"
      ],
      [
        "li",
        "t"
      ],
      [
        "si",
        "m"
      ],
      [
        "c",
        "am"
      ],
      [
        "v",
        "ara"
      ],
      [
        "pan",
        "ch"
      ],
      [
        "de",
        "vi"
      ],
      [
        "ba",
        "j"
      ],
      [
        "uk",
        "h"
      ],
      [
        "v",
        "rit"
      ],
      [
        "ya",
        "cha"
      ],
      [
        "ga",
        "i"
      ],
      [
        "li",
        "c"
      ],
      [
        "di",
        "s"
      ],
      [
        "sk",
        "y"
      ],
      [
        "te",
        "ch"
      ],
      [
        "d",
        "ul"
      ],
      [
        "on",
        "g"
      ],
      [
        "ra",
        "man"
      ],
      [
        "c",
        "r"
      ],
      [
        "us",
        "e"
      ],
      [
        "ch",
        "ho"
      ],
      [
        "va",
        "y"
      ],
      [
        "p",
        "pa"
      ],
      [
        "ur",
        "o"
      ],
      [
        "ti",
        "ya"
      ],
      [
        "ar",
        "e"
      ],
      [
        "t",
        "el"
      ],
      [
        "sha",
        "l"
      ],
      [
        "v",
        "et"
      ],
      [
        "p",
        "ana"
      ],
      [
        "s",
        "um"
      ],
      [
        "o",
        "ri"
      ],
      [
        "o",
        "li"
      ],
      [
        "na",
        "i"
      ],
      [
        "am",
        "an"
      ],
      [
        "yan",
        "i"
      ],
      [
        "t",
        "ing"
      ],
      [
        "m",
        "s"
      ],
      [
        "in",
        "o"
      ],
      [
        "a",
        "y"
      ],
      [
        "han",
        "e"
      ],
      [
        "v",
        "on"
      ],
      [
        "a",
        "j"
      ],
      [
        "ti",
        "t"
      ],
      [
        "p",
        "am"
      ],
      [
        "h",
        "ra"
      ],
      [
        "g",
        "it"
      ],
      [
        "sh",
        "on"
      ],
      [
        "c",
        "at"
      ],
      [
        "yen",
        "ge"
      ],
      [
        "vi",
        "ro"
      ],
      [
        "ani",
        "ya"
      ],
      [
        "bar",
        "o"
      ],
      [
        "n",
        "and"
      ],
      [
        "ya",
        "chya"
      ],
      [
        "er",
        "o"
      ],
      [
        "g",
        "hu"
      ],
      [
        "te",
        "d"
      ],
      [
        "pr",
        "es"
      ],
      [
        "al",
        "o"
      ],
      [
        "ba",
        "gh"
      ],
      [
        "ha",
        "li"
      ],
      [
        "f",
        "ri"
      ],
      [
        "g",
        "hi"
      ],
      [
        "pun",
        "ar"
      ],
      [
        "p",
        "la"
      ],
      [
        "bi",
        "li"
      ],
      [
        "b",
        "y"
      ],
      [
        "j",
        "ad"
      ],
      [
        "r",
        "ut"
      ],
      [
        "go",
        "l"
      ],
      [
        "ar",
        "d"
      ],
      [
        "ud",
        "e"
      ],
      [
        "m",
        "es"
      ],
      [
        "t",
        "ad"
      ],
      [
        "st",
        "han"
      ],
      [
        "u",
        "di"
      ],
      [
        "u",
        "ma"
      ],
      [
        "c",
        "le"
      ],
      [
        "ar",
        "an"
      ],
      [
        "un",
        "gi"
      ],
      [
        "as",
        "ha"
      ],
      [
        "ara",
        "j"
      ],
      [
        "ber",
        "g"
      ],
      [
        "p",
        "ant"
      ],
      [
        "ya",
        "d"
      ],
      [
        "r",
        "um"
      ],
      [
        "s",
        "et"
      ],
      [
        "k",
        "rit"
      ],
      [
        "l",
        "et"
      ],
      [
        "sha",
        "t"
      ],
      [
        "ur",
        "u"
      ],
      [
        "l",
        "ang"
      ],
      [
        "w",
        "er"
      ],
      [
        "c",
        "an"
      ],
      [
        "s",
        "el"
      ],
      [
        "t",
        "or"
      ],
      [
        "yo",
        "gi"
      ],
      [
        "b",
        "uk"
      ],
      [
        "in",
        "s"
      ],
      [
        "u",
        "ti"
      ],
      [
        "ch",
        "ana"
      ],
      [
        "b",
        "re"
      ],
      [
        "man",
        "tri"
      ],
      [
        "m",
        "ali"
      ],
      [
        "o",
        "p"
      ],
      [
        "band",
        "h"
      ],
      [
        "j",
        "ati"
      ],
      [
        "an",
        "and"
      ],
      [
        "ve",
        "sh"
      ],
      [
        "s",
        "ch"
      ],
      [
        "sh",
        "et"
      ],
      [
        "su",
        "b"
      ],
      [
        "c",
        "l"
      ],
      [
        "o",
        "m"
      ],
      [
        "vas",
        "tha"
      ],
      [
        "c",
        "as"
      ],
      [
        "en",
        "e"
      ],
      [
        "h",
        "ri"
      ],
      [
        "po",
        "ly"
      ],
      [
        "fi",
        "c"
      ],
      [
        "shi",
        "k"
      ],
      [
        "t",
        "ant"
      ],
      [
        "pur",
        "vak"
      ],
      [
        "sh",
        "er"
      ],
      [
        "ba",
        "ji"
      ],
      [
        "mad",
        "hil"
      ],
      [
        "o",
        "v"
      ],
      [
        "ar",
        "th"
      ],
      [
        "g",
        "ro"
      ],
      [
        "pu",
        "ram"
      ],
      [
        "dha",
        "k"
      ],
      [
        "mi",
        "s"
      ],
      [
        "t",
        "ya"
      ],
      [
        "band",
        "i"
      ],
      [
        "kar",
        "on"
      ],
      [
        "a",
        "ch"
      ],
      [
        "t",
        "ara"
      ],
      [
        "u",
        "j"
      ],
      [
        "ti",
        "a"
      ],
      [
        "va",
        "ya"
      ],
      [
        "n",
        "or"
      ],
      [
        "x",
        "i"
      ],
      [
        "kad",
        "un"
      ],
      [
        "es",
        "ha"
      ],
      [
        "bo",
        "l"
      ],
      [
        "y",
        "ati"
      ],
      [
        "tran",
        "s"
      ],
      [
        "e",
        "shwar"
      ],
      [
        "si",
        "r"
      ],
      [
        "b",
        "ana"
      ],
      [
        "k",
        "ud"
      ],
      [
        "da",
        "y"
      ],
      [
        "khi",
        "l"
      ],
      [
        "h",
        "and"
      ],
      [
        "p",
        "ala"
      ],
      [
        "v",
        "am"
      ],
      [
        "khe",
        "da"
      ],
      [
        "ni",
        "m"
      ],
      [
        "pr",
        "an"
      ],
      [
        "d",
        "ing"
      ],
      [
        "g",
        "ati"
      ],
      [
        "b",
        "et"
      ],
      [
        "at",
        "mak"
      ],
      [
        "ra",
        "ma"
      ],
      [
        "j",
        "un"
      ],
      [
        "b",
        "ani"
      ],
      [
        "t",
        "ala"
      ],
      [
        "en",
        "ge"
      ],
      [
        "ba",
        "hu"
      ],
      [
        "j",
        "har"
      ],
      [
        "e",
        "li"
      ],
      [
        "b",
        "ed"
      ],
      [
        "ul",
        "e"
      ],
      [
        "j",
        "yo"
      ],
      [
        "n",
        "ara"
      ],
      [
        "r",
        "ani"
      ],
      [
        "t",
        "ari"
      ],
      [
        "bh",
        "umi"
      ],
      [
        "bhar",
        "at"
      ],
      [
        "a",
        "z"
      ],
      [
        "g",
        "or"
      ],
      [
        "ch",
        "er"
      ],
      [
        "a",
        "ut"
      ],
      [
        "ra",
        "d"
      ],
      [
        "bh",
        "ut"
      ],
      [
        "sa",
        "gar"
      ],
      [
        "se",
        "d"
      ],
      [
        "c",
        "ri"
      ],
      [
        "it",
        "e"
      ],
      [
        "di",
        "ya"
      ],
      [
        "pe",
        "ksha"
      ],
      [
        "d",
        "hat"
      ],
      [
        "man",
        "g"
      ],
      [
        "r",
        "et"
      ],
      [
        "s",
        "ari"
      ],
      [
        "da",
        "i"
      ],
      [
        "ch",
        "he"
      ],
      [
        "j",
        "ho"
      ],
      [
        "uk",
        "i"
      ],
      [
        "h",
        "ya"
      ],
      [
        "y",
        "ud"
      ],
      [
        "c",
        "c"
      ],
      [
        "pa",
        "sh"
      ],
      [
        "ak",
        "e"
      ],
      [
        "la",
        "v"
      ],
      [
        "es",
        "hi"
      ],
      [
        "ji",
        "van"
      ],
      [
        "vas",
        "i"
      ],
      [
        "c",
        "ent"
      ],
      [
        "vari",
        "l"
      ],
      [
        "g",
        "as"
      ],
      [
        "pu",
        "sh"
      ],
      [
        "ct",
        "or"
      ],
      [
        "t",
        "har"
      ],
      [
        "an",
        "ya"
      ],
      [
        "in",
        "di"
      ],
      [
        "el",
        "d"
      ],
      [
        "hi",
        "m"
      ],
      [
        "ut",
        "h"
      ],
      [
        "ga",
        "v"
      ],
      [
        "c",
        "ap"
      ],
      [
        "c",
        "ti"
      ],
      [
        "on",
        "i"
      ],
      [
        "ta",
        "b"
      ],
      [
        "ut",
        "e"
      ],
      [
        "wa",
        "y"
      ],
      [
        "dhar",
        "m"
      ],
      [
        "sup",
        "er"
      ],
      [
        "t",
        "ul"
      ],
      [
        "shi",
        "r"
      ],
      [
        "kha",
        "l"
      ],
      [
        "u",
        "a"
      ],
      [
        "an",
        "ta"
      ],
      [
        "ak",
        "on"
      ],
      [
        "vi",
        "dha"
      ],
      [
        "r",
        "uk"
      ],
      [
        "va",
        "hi"
      ],
      [
        "p",
        "ane"
      ],
      [
        "en",
        "g"
      ],
      [
        "pal",
        "li"
      ],
      [
        "und",
        "er"
      ],
      [
        "an",
        "s"
      ],
      [
        "ch",
        "un"
      ],
      [
        "na",
        "u"
      ],
      [
        "ut",
        "tar"
      ],
      [
        "char",
        "an"
      ],
      [
        "val",
        "e"
      ],
      [
        "i",
        "sh"
      ],
      [
        "r",
        "al"
      ],
      [
        "k",
        "ata"
      ],
      [
        "ba",
        "z"
      ],
      [
        "ch",
        "et"
      ],
      [
        "suk",
        "h"
      ],
      [
        "d",
        "el"
      ],
      [
        "ha",
        "st"
      ],
      [
        "pan",
        "cha"
      ],
      [
        "am",
        "ar"
      ],
      [
        "en",
        "a"
      ],
      [
        "dhar",
        "i"
      ],
      [
        "sa",
        "bha"
      ],
      [
        "en",
        "ce"
      ],
      [
        "v",
        "ana"
      ],
      [
        "ri",
        "k"
      ],
      [
        "vi",
        "s"
      ],
      [
        "c",
        "er"
      ],
      [
        "g",
        "adi"
      ],
      [
        "p",
        "le"
      ],
      [
        "t",
        "un"
      ],
      [
        "t",
        "um"
      ],
      [
        "f",
        "ra"
      ],
      [
        "at",
        "or"
      ],
      [
        "ak",
        "o"
      ],
      [
        "me",
        "h"
      ],
      [
        "j",
        "ang"
      ],
      [
        "ra",
        "di"
      ],
      [
        "as",
        "athi"
      ],
      [
        "ba",
        "ha"
      ],
      [
        "s",
        "us"
      ],
      [
        "pur",
        "n"
      ],
      [
        "g",
        "es"
      ],
      [
        "m",
        "ata"
      ],
      [
        "j",
        "ali"
      ],
      [
        "re",
        "d"
      ],
      [
        "b",
        "hin"
      ],
      [
        "r",
        "ing"
      ],
      [
        "ri",
        "c"
      ],
      [
        "sa",
        "b"
      ],
      [
        "shak",
        "ti"
      ],
      [
        "cha",
        "i"
      ],
      [
        "k",
        "ang"
      ],
      [
        "kh",
        "ur"
      ],
      [
        "s",
        "es"
      ],
      [
        "at",
        "ma"
      ],
      [
        "chi",
        "tra"
      ],
      [
        "ha",
        "di"
      ],
      [
        "sha",
        "la"
      ],
      [
        "d",
        "ad"
      ],
      [
        "yan",
        "g"
      ],
      [
        "yan",
        "chya"
      ],
      [
        "h",
        "el"
      ],
      [
        "ga",
        "j"
      ],
      [
        "p",
        "ti"
      ],
      [
        "har",
        "e"
      ],
      [
        "vid",
        "ya"
      ],
      [
        "k",
        "ing"
      ],
      [
        "sh",
        "tha"
      ],
      [
        "w",
        "am"
      ],
      [
        "ra",
        "ja"
      ],
      [
        "me",
        "di"
      ],
      [
        "d",
        "or"
      ],
      [
        "n",
        "ur"
      ],
      [
        "i",
        "z"
      ],
      [
        "as",
        "e"
      ],
      [
        "g",
        "g"
      ],
      [
        "t",
        "es"
      ],
      [
        "ho",
        "l"
      ],
      [
        "ko",
        "l"
      ],
      [
        "kha",
        "d"
      ],
      [
        "w",
        "ud"
      ],
      [
        "ar",
        "on"
      ],
      [
        "vad",
        "a"
      ],
      [
        "ma",
        "ya"
      ],
      [
        "da",
        "ya"
      ],
      [
        "d",
        "uk"
      ],
      [
        "f",
        "on"
      ],
      [
        "mi",
        "cro"
      ],
      [
        "vas",
        "a"
      ],
      [
        "c",
        "re"
      ],
      [
        "k",
        "und"
      ],
      [
        "v",
        "ol"
      ],
      [
        "sh",
        "mi"
      ],
      [
        "ad",
        "har"
      ],
      [
        "as",
        "am"
      ],
      [
        "m",
        "uni"
      ],
      [
        "shi",
        "p"
      ],
      [
        "h",
        "or"
      ],
      [
        "b",
        "s"
      ],
      [
        "r",
        "ata"
      ],
      [
        "y",
        "ari"
      ],
      [
        "sh",
        "ta"
      ],
      [
        "ri",
        "ti"
      ],
      [
        "kar",
        "mi"
      ],
      [
        "kh",
        "ya"
      ],
      [
        "j",
        "ani"
      ],
      [
        "k",
        "or"
      ],
      [
        "d",
        "ud"
      ],
      [
        "sh",
        "ana"
      ],
      [
        "vi",
        "char"
      ],
      [
        "e",
        "y"
      ],
      [
        "v",
        "and"
      ],
      [
        "ta",
        "p"
      ],
      [
        "sha",
        "d"
      ],
      [
        "f",
        "ur"
      ],
      [
        "sha",
        "b"
      ],
      [
        "pre",
        "m"
      ],
      [
        "f",
        "ut"
      ],
      [
        "s",
        "ala"
      ],
      [
        "s",
        "pe"
      ],
      [
        "ye",
        "gi"
      ],
      [
        "s",
        "ki"
      ],
      [
        "hi",
        "yon"
      ],
      [
        "adh",
        "ye"
      ],
      [
        "fi",
        "r"
      ],
      [
        "po",
        "ra"
      ],
      [
        "kha",
        "li"
      ],
      [
        "g",
        "n"
      ],
      [
        "sh",
        "ari"
      ],
      [
        "pra",
        "sad"
      ],
      [
        "ne",
        "y"
      ],
      [
        "b",
        "ind"
      ],
      [
        "o",
        "la"
      ],
      [
        "bha",
        "sha"
      ],
      [
        "raj",
        "ya"
      ],
      [
        "m",
        "ini"
      ],
      [
        "ra",
        "ksha"
      ],
      [
        "b",
        "ata"
      ],
      [
        "t",
        "ana"
      ],
      [
        "b",
        "un"
      ],
      [
        "k",
        "s"
      ],
      [
        "ba",
        "ck"
      ],
      [
        "i",
        "la"
      ],
      [
        "j",
        "ari"
      ],
      [
        "ha",
        "v"
      ],
      [
        "kal",
        "an"
      ],
      [
        "sh",
        "uk"
      ],
      [
        "di",
        "h"
      ],
      [
        "f",
        "ran"
      ],
      [
        "dhar",
        "a"
      ],
      [
        "c",
        "ur"
      ],
      [
        "v",
        "yak"
      ],
      [
        "was",
        "i"
      ],
      [
        "c",
        "lo"
      ],
      [
        "po",
        "l"
      ],
      [
        "ation",
        "s"
      ],
      [
        "ri",
        "s"
      ],
      [
        "k",
        "hari"
      ],
      [
        "pra",
        "bha"
      ],
      [
        "e",
        "v"
      ],
      [
        "r",
        "ati"
      ],
      [
        "vi",
        "c"
      ],
      [
        "pi",
        "l"
      ],
      [
        "w",
        "ati"
      ],
      [
        "an",
        "on"
      ],
      [
        "b",
        "l"
      ],
      [
        "d",
        "un"
      ],
      [
        "o",
        "k"
      ],
      [
        "ch",
        "on"
      ],
      [
        "cha",
        "u"
      ],
      [
        "b",
        "us"
      ],
      [
        "vi",
        "kas"
      ],
      [
        "t",
        "t"
      ],
      [
        "kat",
        "ha"
      ],
      [
        "a",
        "ir"
      ],
      [
        "d",
        "hu"
      ],
      [
        "z",
        "u"
      ],
      [
        "ba",
        "it"
      ],
      [
        "b",
        "lo"
      ],
      [
        "y",
        "ya"
      ],
      [
        "ki",
        "ya"
      ],
      [
        "te",
        "m"
      ],
      [
        "k",
        "ane"
      ],
      [
        "por",
        "t"
      ],
      [
        "ksh",
        "et"
      ],
      [
        "k",
        "ana"
      ],
      [
        "p",
        "rit"
      ],
      [
        "var",
        "un"
      ],
      [
        "d",
        "he"
      ],
      [
        "par",
        "ak"
      ],
      [
        "n",
        "es"
      ],
      [
        "kha",
        "t"
      ],
      [
        "wal",
        "on"
      ],
      [
        "z",
        "ation"
      ],
      [
        "rash",
        "tra"
      ],
      [
        "j",
        "hu"
      ],
      [
        "ji",
        "l"
      ],
      [
        "z",
        "er"
      ],
      [
        "b",
        "es"
      ],
      [
        "u",
        "ta"
      ],
      [
        "um",
        "ar"
      ],
      [
        "k",
        "el"
      ],
      [
        "p",
        "ata"
      ],
      [
        "pe",
        "ri"
      ],
      [
        "d",
        "wi"
      ],
      [
        "g",
        "up"
      ],
      [
        "j",
        "ane"
      ],
      [
        "po",
        "li"
      ],
      [
        "ad",
        "ar"
      ],
      [
        "pri",
        "ya"
      ],
      [
        "w",
        "ana"
      ],
      [
        "kar",
        "m"
      ],
      [
        "ba",
        "ch"
      ],
      [
        "i",
        "st"
      ],
      [
        "t",
        "re"
      ],
      [
        "f",
        "un"
      ],
      [
        "s",
        "or"
      ],
      [
        "chi",
        "l"
      ],
      [
        "bili",
        "ty"
      ],
      [
        "j",
        "ala"
      ],
      [
        "sa",
        "p"
      ],
      [
        "sh",
        "th"
      ],
      [
        "ki",
        "l"
      ],
      [
        "sh",
        "ani"
      ],
      [
        "f",
        "it"
      ],
      [
        "p",
        "adi"
      ],
      [
        "li",
        "m"
      ],
      [
        "shi",
        "ksha"
      ],
      [
        "g",
        "um"
      ],
      [
        "har",
        "an"
      ],
      [
        "ni",
        "ya"
      ],
      [
        "i",
        "ti"
      ],
      [
        "si",
        "a"
      ],
      [
        "kri",
        "ya"
      ],
      [
        "gr",
        "ant"
      ],
      [
        "a",
        "vi"
      ],
      [
        "w",
        "ak"
      ],
      [
        "cha",
        "hi"
      ],
      [
        "ga",
        "ir"
      ],
      [
        "c",
        "ra"
      ],
      [
        "h",
        "ur"
      ],
      [
        "o",
        "us"
      ],
      [
        "r",
        "un"
      ],
      [
        "s",
        "pi"
      ],
      [
        "w",
        "ell"
      ],
      [
        "ch",
        "ang"
      ],
      [
        "j",
        "et"
      ],
      [
        "ha",
        "ta"
      ],
      [
        "san",
        "s"
      ],
      [
        "i",
        "ra"
      ],
      [
        "k",
        "ani"
      ],
      [
        "at",
        "ed"
      ],
      [
        "vi",
        "dhan"
      ],
      [
        "g",
        "ane"
      ],
      [
        "adh",
        "ya"
      ],
      [
        "z",
        "am"
      ],
      [
        "he",
        "di"
      ],
      [
        "sh",
        "or"
      ],
      [
        "ent",
        "s"
      ],
      [
        "ar",
        "tha"
      ],
      [
        "bha",
        "l"
      ],
      [
        "d",
        "r"
      ],
      [
        "ha",
        "ti"
      ],
      [
        "ka",
        "v"
      ],
      [
        "va",
        "j"
      ],
      [
        "pra",
        "mane"
      ],
      [
        "d",
        "ara"
      ],
      [
        "k",
        "ra"
      ],
      [
        "shan",
        "kar"
      ],
      [
        "end",
        "er"
      ],
      [
        "k",
        "y"
      ],
      [
        "sha",
        "stra"
      ],
      [
        "st",
        "ro"
      ],
      [
        "c",
        "el"
      ],
      [
        "and",
        "ar"
      ],
      [
        "for",
        "d"
      ],
      [
        "g",
        "ani"
      ],
      [
        "an",
        "chi"
      ],
      [
        "la",
        "b"
      ],
      [
        "dh",
        "ya"
      ],
      [
        "g",
        "ali"
      ],
      [
        "m",
        "um"
      ],
      [
        "y",
        "ut"
      ],
      [
        "vil",
        "le"
      ],
      [
        "p",
        "ing"
      ],
      [
        "st",
        "hi"
      ],
      [
        "g",
        "re"
      ],
      [
        "k",
        "hin"
      ],
      [
        "p",
        "ed"
      ],
      [
        "ch",
        "hu"
      ],
      [
        "wa",
        "i"
      ],
      [
        "g",
        "lo"
      ],
      [
        "v",
        "ina"
      ],
      [
        "ch",
        "ur"
      ],
      [
        "po",
        "t"
      ],
      [
        "e",
        "h"
      ],
      [
        "l",
        "ut"
      ],
      [
        "v",
        "ind"
      ],
      [
        "j",
        "ur"
      ],
      [
        "s",
        "ana"
      ],
      [
        "vi",
        "gyan"
      ],
      [
        "k",
        "ed"
      ],
      [
        "u",
        "f"
      ],
      [
        "e",
        "ra"
      ],
      [
        "e",
        "di"
      ],
      [
        "en",
        "i"
      ],
      [
        "ti",
        "ka"
      ],
      [
        "vi",
        "ra"
      ],
      [
        "ma",
        "u"
      ],
      [
        "shi",
        "ya"
      ],
      [
        "sat",
        "ya"
      ],
      [
        "a",
        "ur"
      ],
      [
        "e",
        "la"
      ],
      [
        "li",
        "p"
      ],
      [
        "ti",
        "es"
      ],
      [
        "par",
        "as"
      ],
      [
        "d",
        "um"
      ],
      [
        "he",
        "da"
      ],
      [
        "so",
        "l"
      ],
      [
        "ran",
        "ti"
      ],
      [
        "j",
        "hal"
      ],
      [
        "hi",
        "k"
      ],
      [
        "ma",
        "hat"
      ],
      [
        "ati",
        "l"
      ],
      [
        "pa",
        "ch"
      ],
      [
        "s",
        "co"
      ],
      [
        "el",
        "ya"
      ],
      [
        "i",
        "li"
      ],
      [
        "at",
        "ha"
      ],
      [
        "ch",
        "uk"
      ],
      [
        "it",
        "ra"
      ],
      [
        "gi",
        "l"
      ],
      [
        "b",
        "la"
      ],
      [
        "g",
        "una"
      ],
      [
        "ba",
        "zi"
      ],
      [
        "pa",
        "hun"
      ],
      [
        "d",
        "ani"
      ],
      [
        "l",
        "ine"
      ],
      [
        "v",
        "ala"
      ],
      [
        "ra",
        "kh"
      ],
      [
        "man",
        "u"
      ],
      [
        "an",
        "ce"
      ],
      [
        "ba",
        "zar"
      ],
      [
        "pra",
        "kash"
      ],
      [
        "w",
        "il"
      ],
      [
        "sama",
        "j"
      ],
      [
        "p",
        "li"
      ],
      [
        "sa",
        "hit"
      ],
      [
        "dar",
        "shan"
      ],
      [
        "fo",
        "to"
      ],
      [
        "ra",
        "o"
      ],
      [
        "ta",
        "v"
      ],
      [
        "yan",
        "chi"
      ],
      [
        "mi",
        "c"
      ],
      [
        "p",
        "lo"
      ],
      [
        "ch",
        "ara"
      ],
      [
        "ka",
        "vi"
      ],
      [
        "vas",
        "iyon"
      ],
      [
        "d",
        "ut"
      ],
      [
        "logi",
        "st"
      ],
      [
        "madh",
        "ya"
      ],
      [
        "kri",
        "ti"
      ],
      [
        "ri",
        "sh"
      ],
      [
        "ari",
        "ya"
      ],
      [
        "si",
        "k"
      ],
      [
        "w",
        "in"
      ],
      [
        "an",
        "ga"
      ],
      [
        "an",
        "chya"
      ],
      [
        "al",
        "s"
      ],
      [
        "bi",
        "j"
      ],
      [
        "w",
        "ang"
      ],
      [
        "sa",
        "u"
      ],
      [
        "bhar",
        "i"
      ],
      [
        "s",
        "par"
      ],
      [
        "al",
        "am"
      ],
      [
        "ak",
        "sha"
      ],
      [
        "m",
        "ate"
      ],
      [
        "at",
        "o"
      ],
      [
        "di",
        "g"
      ],
      [
        "ch",
        "han"
      ],
      [
        "kha",
        "m"
      ],
      [
        "bud",
        "dhi"
      ],
      [
        "j",
        "ya"
      ],
      [
        "hy",
        "dro"
      ],
      [
        "sha",
        "hi"
      ],
      [
        "shi",
        "ka"
      ],
      [
        "l",
        "um"
      ],
      [
        "an",
        "cha"
      ],
      [
        "tha",
        "l"
      ],
      [
        "madh",
        "un"
      ],
      [
        "a",
        "va"
      ],
      [
        "d",
        "ata"
      ],
      [
        "f",
        "lo"
      ],
      [
        "n",
        "ama"
      ],
      [
        "d",
        "and"
      ],
      [
        "f",
        "as"
      ],
      [
        "s",
        "ani"
      ],
      [
        "t",
        "ang"
      ],
      [
        "ni",
        "ti"
      ],
      [
        "po",
        "st"
      ],
      [
        "c",
        "to"
      ],
      [
        "un",
        "t"
      ],
      [
        "sa",
        "hi"
      ],
      [
        "mar",
        "t"
      ],
      [
        "krish",
        "na"
      ],
      [
        "i",
        "yan"
      ],
      [
        "o",
        "ra"
      ],
      [
        "he",
        "ad"
      ],
      [
        "ko",
        "v"
      ],
      [
        "m",
        "rit"
      ],
      [
        "r",
        "ar"
      ],
      [
        "sar",
        "va"
      ],
      [
        "ha",
        "in"
      ],
      [
        "l",
        "or"
      ],
      [
        "m",
        "ri"
      ],
      [
        "la",
        "bh"
      ],
      [
        "mo",
        "han"
      ],
      [
        "v",
        "ata"
      ],
      [
        "w",
        "ant"
      ],
      [
        "pra",
        "kar"
      ],
      [
        "bad",
        "a"
      ],
      [
        "h",
        "ul"
      ],
      [
        "sa",
        "j"
      ],
      [
        "shan",
        "ti"
      ],
      [
        "g",
        "s"
      ],
      [
        "ya",
        "sathi"
      ],
      [
        "mand",
        "al"
      ],
      [
        "ha",
        "y"
      ],
      [
        "di",
        "t"
      ],
      [
        "cha",
        "la"
      ],
      [
        "m",
        "p"
      ],
      [
        "s",
        "ali"
      ],
      [
        "ni",
        "k"
      ],
      [
        "pra",
        "dhan"
      ],
      [
        "pat",
        "ri"
      ],
      [
        "ind",
        "ra"
      ],
      [
        "q",
        "a"
      ],
      [
        "ta",
        "hi"
      ],
      [
        "ke",
        "sh"
      ],
      [
        "ma",
        "han"
      ],
      [
        "man",
        "gal"
      ],
      [
        "so",
        "m"
      ],
      [
        "mukh",
        "ya"
      ],
      [
        "h",
        "et"
      ],
      [
        "ri",
        "es"
      ],
      [
        "kal",
        "in"
      ],
      [
        "adh",
        "yak"
      ],
      [
        "w",
        "it"
      ],
      [
        "en",
        "ti"
      ],
      [
        "el",
        "li"
      ],
      [
        "vadi",
        "yon"
      ],
      [
        "d",
        "ana"
      ],
      [
        "g",
        "ara"
      ],
      [
        "n",
        "adi"
      ],
      [
        "dh",
        "un"
      ],
      [
        "ck",
        "et"
      ],
      [
        "vi",
        "dhi"
      ],
      [
        "he",
        "ra"
      ],
      [
        "ina",
        "gar"
      ],
      [
        "b",
        "ati"
      ],
      [
        "t",
        "ani"
      ],
      [
        "in",
        "f"
      ],
      [
        "th",
        "y"
      ],
      [
        "swar",
        "up"
      ],
      [
        "g",
        "ut"
      ],
      [
        "ri",
        "yon"
      ],
      [
        "th",
        "er"
      ],
      [
        "k",
        "r"
      ],
      [
        "d",
        "us"
      ],
      [
        "sh",
        "re"
      ],
      [
        "ga",
        "h"
      ],
      [
        "gan",
        "ga"
      ],
      [
        "a",
        "bh"
      ],
      [
        "d",
        "dha"
      ],
      [
        "y",
        "er"
      ],
      [
        "or",
        "y"
      ],
      [
        "kh",
        "el"
      ],
      [
        "y",
        "ara"
      ],
      [
        "jan",
        "on"
      ],
      [
        "khan",
        "a"
      ],
      [
        "f",
        "re"
      ],
      [
        "o",
        "x"
      ],
      [
        "g",
        "ate"
      ],
      [
        "ari",
        "a"
      ],
      [
        "t",
        "ele"
      ],
      [
        "kam",
        "al"
      ],
      [
        "st",
        "al"
      ],
      [
        "ment",
        "s"
      ],
      [
        "o",
        "ver"
      ],
      [
        "fi",
        "eld"
      ],
      [
        "k",
        "uk"
      ],
      [
        "y",
        "un"
      ],
      [
        "sh",
        "ram"
      ],
      [
        "ing",
        "h"
      ],
      [
        "up",
        "i"
      ],
      [
        "c",
        "in"
      ],
      [
        "o",
        "logy"
      ],
      [
        "sa",
        "in"
      ],
      [
        "sam",
        "an"
      ],
      [
        "k",
        "end"
      ],
      [
        "m",
        "ing"
      ],
      [
        "k",
        "us"
      ],
      [
        "w",
        "n"
      ],
      [
        "bha",
        "d"
      ],
      [
        "bha",
        "ga"
      ],
      [
        "k",
        "ati"
      ],
      [
        "p",
        "ers"
      ],
      [
        "ra",
        "ch"
      ],
      [
        "st",
        "on"
      ],
      [
        "m",
        "ara"
      ],
      [
        "ji",
        "vi"
      ],
      [
        "he",
        "li"
      ],
      [
        "se",
        "x"
      ],
      [
        "bad",
        "dal"
      ],
      [
        "f",
        "ad"
      ],
      [
        "i",
        "g"
      ],
      [
        "ra",
        "y"
      ],
      [
        "ni",
        "l"
      ],
      [
        "k",
        "shan"
      ],
      [
        "at",
        "va"
      ],
      [
        "sh",
        "yam"
      ],
      [
        "mi",
        "d"
      ],
      [
        "g",
        "ala"
      ],
      [
        "p",
        "us"
      ],
      [
        "vi",
        "hin"
      ],
      [
        "sh",
        "ud"
      ],
      [
        "ati",
        "ve"
      ],
      [
        "g",
        "el"
      ],
      [
        "h",
        "um"
      ],
      [
        "r",
        "ana"
      ],
      [
        "cha",
        "uk"
      ],
      [
        "up",
        "ar"
      ],
      [
        "ka",
        "on"
      ],
      [
        "pi",
        "r"
      ],
      [
        "a",
        "par"
      ],
      [
        "an",
        "che"
      ],
      [
        "ka",
        "ya"
      ],
      [
        "e",
        "ga"
      ],
      [
        "li",
        "ya"
      ],
      [
        "yan",
        "cha"
      ],
      [
        "bha",
        "j"
      ],
      [
        "ag",
        "ni"
      ],
      [
        "tic",
        "s"
      ],
      [
        "n",
        "ing"
      ],
      [
        "st",
        "r"
      ],
      [
        "mi",
        "k"
      ],
      [
        "ra",
        "g"
      ],
      [
        "mul",
        "ti"
      ],
      [
        "c",
        "la"
      ],
      [
        "k",
        "ram"
      ],
      [
        "wa",
        "h"
      ],
      [
        "s",
        "n"
      ],
      [
        "s",
        "p"
      ],
      [
        "ch",
        "cha"
      ],
      [
        "ka",
        "u"
      ],
      [
        "ke",
        "y"
      ],
      [
        "dh",
        "on"
      ],
      [
        "met",
        "er"
      ],
      [
        "z",
        "ed"
      ],
      [
        "hi",
        "ra"
      ],
      [
        "kar",
        "o"
      ],
      [
        "yan",
        "che"
      ],
      [
        "chi",
        "k"
      ],
      [
        "pur",
        "va"
      ],
      [
        "pra",
        "sh"
      ],
      [
        "ra",
        "il"
      ],
      [
        "kar",
        "ak"
      ],
      [
        "ck",
        "er"
      ],
      [
        "adhi",
        "kari"
      ],
      [
        "o",
        "sh"
      ],
      [
        "e",
        "f"
      ],
      [
        "at",
        "an"
      ],
      [
        "al",
        "an"
      ],
      [
        "as",
        "an"
      ],
      [
        "el",
        "o"
      ],
      [
        "jan",
        "ak"
      ],
      [
        "at",
        "han"
      ],
      [
        "muk",
        "hi"
      ],
      [
        "t",
        "uk"
      ],
      [
        "t",
        "ali"
      ],
      [
        "ci",
        "al"
      ],
      [
        "jyo",
        "ti"
      ],
      [
        "c",
        "um"
      ],
      [
        "di",
        "r"
      ],
      [
        "man",
        "tr"
      ],
      [
        "chi",
        "r"
      ],
      [
        "ant",
        "ra"
      ],
      [
        "sam",
        "u"
      ],
      [
        "hu",
        "a"
      ],
      [
        "ha",
        "da"
      ],
      [
        "var",
        "dhan"
      ],
      [
        "se",
        "va"
      ],
      [
        "m",
        "adi"
      ],
      [
        "st",
        "hal"
      ],
      [
        "ala",
        "ya"
      ],
      [
        "mi",
        "la"
      ],
      [
        "tha",
        "m"
      ],
      [
        "d",
        "ang"
      ],
      [
        "l",
        "ess"
      ],
      [
        "u",
        "man"
      ],
      [
        "ra",
        "ha"
      ],
      [
        "sh",
        "en"
      ],
      [
        "sam",
        "i"
      ],
      [
        "dar",
        "on"
      ],
      [
        "pre",
        "mi"
      ],
      [
        "a",
        "pa"
      ],
      [
        "j",
        "en"
      ],
      [
        "an",
        "gi"
      ],
      [
        "bi",
        "s"
      ],
      [
        "bo",
        "dh"
      ],
      [
        "sur",
        "ya"
      ],
      [
        "w",
        "o"
      ],
      [
        "lak",
        "h"
      ],
      [
        "h",
        "us"
      ],
      [
        "pur",
        "ush"
      ],
      [
        "bhar",
        "a"
      ],
      [
        "po",
        "wer"
      ],
      [
        "bak",
        "h"
      ],
      [
        "qu",
        "e"
      ],
      [
        "ar",
        "u"
      ],
      [
        "in",
        "da"
      ],
      [
        "ba",
        "b"
      ],
      [
        "co",
        "s"
      ],
      [
        "n",
        "ess"
      ],
      [
        "p",
        "ud"
      ],
      [
        "ro",
        "l"
      ],
      [
        "it",
        "h"
      ],
      [
        "ki",
        "s"
      ],
      [
        "mo",
        "t"
      ],
      [
        "be",
        "h"
      ],
      [
        "j",
        "um"
      ],
      [
        "a",
        "yo"
      ],
      [
        "j",
        "he"
      ],
      [
        "q",
        "i"
      ],
      [
        "u",
        "g"
      ],
      [
        "ch",
        "or"
      ],
      [
        "yan",
        "antar"
      ],
      [
        "khe",
        "di"
      ],
      [
        "bha",
        "van"
      ],
      [
        "pari",
        "var"
      ],
      [
        "put",
        "ra"
      ],
      [
        "ar",
        "t"
      ],
      [
        "cha",
        "tur"
      ],
      [
        "da",
        "h"
      ],
      [
        "d",
        "et"
      ],
      [
        "h",
        "uk"
      ],
      [
        "hin",
        "du"
      ],
      [
        "sw",
        "i"
      ],
      [
        "k",
        "adi"
      ],
      [
        "ra",
        "hi"
      ],
      [
        "ta",
        "h"
      ],
      [
        "kar",
        "ana"
      ],
      [
        "end",
        "u"
      ],
      [
        "ste",
        "in"
      ],
      [
        "bad",
        "dh"
      ],
      [
        "fo",
        "s"
      ],
      [
        "yala",
        "ya"
      ],
      [
        "k",
        "up"
      ],
      [
        "ya",
        "g"
      ],
      [
        "es",
        "e"
      ],
      [
        "ja",
        "b"
      ],
      [
        "j",
        "or"
      ],
      [
        "and",
        "e"
      ],
      [
        "ho",
        "t"
      ],
      [
        "d",
        "war"
      ],
      [
        "u",
        "b"
      ],
      [
        "un",
        "e"
      ],
      [
        "ji",
        "v"
      ],
      [
        "le",
        "kh"
      ],
      [
        "kal",
        "e"
      ],
      [
        "g",
        "uda"
      ],
      [
        "j",
        "ul"
      ],
      [
        "ra",
        "vi"
      ],
      [
        "st",
        "s"
      ],
      [
        "va",
        "h"
      ],
      [
        "mi",
        "ya"
      ],
      [
        "a",
        "ya"
      ],
      [
        "la",
        "ya"
      ],
      [
        "sa",
        "y"
      ],
      [
        "sam",
        "band"
      ],
      [
        "do",
        "l"
      ],
      [
        "gra",
        "st"
      ],
      [
        "k",
        "ath"
      ],
      [
        "v",
        "ers"
      ],
      [
        "ri",
        "yan"
      ],
      [
        "mi",
        "a"
      ],
      [
        "gra",
        "f"
      ],
      [
        "gra",
        "h"
      ],
      [
        "khan",
        "e"
      ],
      [
        "ia",
        "h"
      ],
      [
        "t",
        "ru"
      ],
      [
        "v",
        "u"
      ],
      [
        "er",
        "e"
      ],
      [
        "na",
        "ya"
      ],
      [
        "c",
        "il"
      ],
      [
        "pur",
        "wa"
      ],
      [
        "mar",
        "g"
      ],
      [
        "sw",
        "as"
      ],
      [
        "f",
        "ari"
      ],
      [
        "k",
        "shi"
      ],
      [
        "t",
        "hu"
      ],
      [
        "el",
        "la"
      ],
      [
        "ne",
        "w"
      ],
      [
        "o",
        "g"
      ],
      [
        "on",
        "a"
      ],
      [
        "and",
        "an"
      ],
      [
        "bha",
        "dra"
      ],
      [
        "it",
        "ya"
      ],
      [
        "ka",
        "ch"
      ],
      [
        "ut",
        "ha"
      ],
      [
        "a",
        "pra"
      ],
      [
        "ha",
        "z"
      ],
      [
        "hi",
        "ni"
      ],
      [
        "ta",
        "in"
      ],
      [
        "te",
        "ri"
      ],
      [
        "she",
        "sh"
      ],
      [
        "for",
        "m"
      ],
      [
        "m",
        "b"
      ],
      [
        "y",
        "ali"
      ],
      [
        "al",
        "y"
      ],
      [
        "ch",
        "hin"
      ],
      [
        "en",
        "gi"
      ],
      [
        "ma",
        "in"
      ],
      [
        "pa",
        "h"
      ],
      [
        "al",
        "ya"
      ],
      [
        "de",
        "h"
      ],
      [
        "ji",
        "m"
      ],
      [
        "pl",
        "as"
      ],
      [
        "chak",
        "ra"
      ],
      [
        "b",
        "ant"
      ],
      [
        "ni",
        "s"
      ],
      [
        "pa",
        "ha"
      ],
      [
        "pr",
        "ess"
      ],
      [
        "yen",
        "gi"
      ],
      [
        "wat",
        "er"
      ],
      [
        "d",
        "c"
      ],
      [
        "f",
        "la"
      ],
      [
        "va",
        "han"
      ],
      [
        "ge",
        "o"
      ],
      [
        "yat",
        "ra"
      ],
      [
        "st",
        "am"
      ],
      [
        "da",
        "v"
      ],
      [
        "co",
        "un"
      ],
      [
        "se",
        "y"
      ],
      [
        "ch",
        "ane"
      ],
      [
        "bo",
        "x"
      ],
      [
        "in",
        "am"
      ],
      [
        "ch",
        "una"
      ],
      [
        "kar",
        "t"
      ],
      [
        "ba",
        "bu"
      ],
      [
        "da",
        "sh"
      ],
      [
        "le",
        "sh"
      ],
      [
        "mo",
        "h"
      ],
      [
        "u",
        "ka"
      ],
      [
        "v",
        "r"
      ],
      [
        "ar",
        "ak"
      ],
      [
        "as",
        "ya"
      ],
      [
        "pi",
        "c"
      ],
      [
        "c",
        "ry"
      ],
      [
        "v",
        "ini"
      ],
      [
        "hi",
        "ta"
      ],
      [
        "vi",
        "a"
      ],
      [
        "ma",
        "hara"
      ],
      [
        "de",
        "d"
      ],
      [
        "mi",
        "ta"
      ],
      [
        "mo",
        "l"
      ],
      [
        "kar",
        "taon"
      ],
      [
        "mo",
        "d"
      ],
      [
        "ha",
        "b"
      ],
      [
        "sh",
        "un"
      ],
      [
        "di",
        "o"
      ],
      [
        "di",
        "yan"
      ],
      [
        "shi",
        "yon"
      ],
      [
        "ata",
        "on"
      ],
      [
        "vir",
        "ud"
      ],
      [
        "p",
        "to"
      ],
      [
        "ta",
        "ch"
      ],
      [
        "di",
        "yon"
      ],
      [
        "sa",
        "un"
      ],
      [
        "pur",
        "u"
      ],
      [
        "var",
        "an"
      ],
      [
        "bh",
        "ul"
      ],
      [
        "h",
        "r"
      ],
      [
        "m",
        "und"
      ],
      [
        "o",
        "ge"
      ],
      [
        "le",
        "kha"
      ],
      [
        "shar",
        "an"
      ],
      [
        "b",
        "ru"
      ],
      [
        "c",
        "us"
      ],
      [
        "g",
        "ana"
      ],
      [
        "v",
        "ane"
      ],
      [
        "bi",
        "a"
      ],
      [
        "gh",
        "um"
      ],
      [
        "fa",
        "i"
      ],
      [
        "logi",
        "cal"
      ],
      [
        "a",
        "bha"
      ],
      [
        "f",
        "ed"
      ],
      [
        "n",
        "in"
      ],
      [
        "ra",
        "b"
      ],
      [
        "na",
        "z"
      ],
      [
        "ani",
        "a"
      ],
      [
        "du",
        "sh"
      ],
      [
        "gad",
        "h"
      ],
      [
        "fic",
        "ation"
      ],
      [
        "k",
        "ranti"
      ],
      [
        "sha",
        "li"
      ],
      [
        "ki",
        "m"
      ],
      [
        "chin",
        "g"
      ],
      [
        "b",
        "lu"
      ],
      [
        "p",
        "es"
      ],
      [
        "s",
        "una"
      ],
      [
        "at",
        "ri"
      ],
      [
        "ta",
        "j"
      ],
      [
        "ba",
        "ba"
      ],
      [
        "yan",
        "tra"
      ],
      [
        "sy",
        "n"
      ],
      [
        "o",
        "ut"
      ],
      [
        "s",
        "pa"
      ],
      [
        "kar",
        "am"
      ],
      [
        "ut",
        "ar"
      ],
      [
        "sam",
        "ar"
      ],
      [
        "gri",
        "h"
      ],
      [
        "kh",
        "on"
      ],
      [
        "nu",
        "ma"
      ],
      [
        "z",
        "on"
      ],
      [
        "hi",
        "yan"
      ],
      [
        "ma",
        "sh"
      ],
      [
        "pa",
        "y"
      ],
      [
        "n",
        "ati"
      ],
      [
        "u",
        "i"
      ],
      [
        "an",
        "uk"
      ],
      [
        "kar",
        "yak"
      ],
      [
        "de",
        "khil"
      ],
      [
        "pr",
        "ata"
      ],
      [
        "ele",
        "ct"
      ],
      [
        "baro",
        "bar"
      ],
      [
        "g",
        "ada"
      ],
      [
        "li",
        "l"
      ],
      [
        "ant",
        "ara"
      ],
      [
        "band",
        "han"
      ],
      [
        "am",
        "o"
      ],
      [
        "n",
        "uk"
      ],
      [
        "ni",
        "ra"
      ],
      [
        "gi",
        "ya"
      ],
      [
        "var",
        "sha"
      ],
      [
        "muk",
        "t"
      ],
      [
        "at",
        "in"
      ],
      [
        "ing",
        "s"
      ],
      [
        "ali",
        "s"
      ],
      [
        "n",
        "el"
      ],
      [
        "r",
        "us"
      ],
      [
        "ri",
        "d"
      ],
      [
        "es",
        "i"
      ],
      [
        "chi",
        "kit"
      ],
      [
        "e",
        "ti"
      ],
      [
        "g",
        "ly"
      ],
      [
        "w",
        "ane"
      ],
      [
        "z",
        "an"
      ],
      [
        "ti",
        "ve"
      ],
      [
        "wor",
        "k"
      ],
      [
        "o",
        "b"
      ],
      [
        "u",
        "un"
      ],
      [
        "di",
        "k"
      ],
      [
        "di",
        "kha"
      ],
      [
        "te",
        "x"
      ],
      [
        "yo",
        "j"
      ],
      [
        "c",
        "li"
      ],
      [
        "an",
        "us"
      ],
      [
        "shi",
        "la"
      ],
      [
        "bo",
        "li"
      ],
      [
        "o",
        "va"
      ],
      [
        "p",
        "ang"
      ],
      [
        "s",
        "r"
      ],
      [
        "kar",
        "e"
      ],
      [
        "st",
        "ru"
      ],
      [
        "da",
        "g"
      ],
      [
        "lo",
        "t"
      ],
      [
        "ban",
        "k"
      ],
      [
        "bhak",
        "ti"
      ],
      [
        "g",
        "us"
      ],
      [
        "j",
        "ama"
      ],
      [
        "ma",
        "hal"
      ],
      [
        "le",
        "d"
      ],
      [
        "k",
        "endra"
      ],
      [
        "o",
        "di"
      ],
      [
        "v",
        "ent"
      ],
      [
        "er",
        "y"
      ],
      [
        "man",
        "n"
      ],
      [
        "hat",
        "h"
      ],
      [
        "gh",
        "t"
      ],
      [
        "gh",
        "un"
      ],
      [
        "pak",
        "sha"
      ],
      [
        "we",
        "b"
      ],
      [
        "l",
        "uk"
      ],
      [
        "y",
        "ate"
      ],
      [
        "ga",
        "ya"
      ],
      [
        "pra",
        "sha"
      ],
      [
        "vrit",
        "ti"
      ],
      [
        "p",
        "el"
      ],
      [
        "at",
        "on"
      ],
      [
        "vi",
        "bha"
      ],
      [
        "sha",
        "i"
      ],
      [
        "bha",
        "u"
      ],
      [
        "up",
        "as"
      ],
      [
        "van",
        "sh"
      ],
      [
        "yi",
        "k"
      ],
      [
        "mand",
        "i"
      ],
      [
        "aut",
        "o"
      ],
      [
        "o",
        "ti"
      ],
      [
        "la",
        "y"
      ],
      [
        "ud",
        "h"
      ],
      [
        "si",
        "ya"
      ],
      [
        "s",
        "ya"
      ],
      [
        "ye",
        "in"
      ],
      [
        "ck",
        "s"
      ],
      [
        "v",
        "yan"
      ],
      [
        "al",
        "on"
      ],
      [
        "co",
        "ur"
      ],
      [
        "bara",
        "ch"
      ],
      [
        "nara",
        "yan"
      ],
      [
        "an",
        "na"
      ],
      [
        "ga",
        "ura"
      ],
      [
        "ana",
        "gar"
      ],
      [
        "gra",
        "fy"
      ],
      [
        "e",
        "va"
      ],
      [
        "ti",
        "ru"
      ],
      [
        "ka",
        "y"
      ],
      [
        "ant",
        "s"
      ],
      [
        "te",
        "j"
      ],
      [
        "sw",
        "am"
      ],
      [
        "mon",
        "o"
      ],
      [
        "ch",
        "hal"
      ],
      [
        "ara",
        "yan"
      ],
      [
        "bi",
        "d"
      ],
      [
        "yu",
        "g"
      ],
      [
        "lon",
        "g"
      ],
      [
        "n",
        "ata"
      ],
      [
        "s",
        "ati"
      ],
      [
        "ya",
        "sh"
      ],
      [
        "ro",
        "d"
      ],
      [
        "viro",
        "dhi"
      ],
      [
        "ma",
        "it"
      ],
      [
        "ro",
        "t"
      ],
      [
        "f",
        "es"
      ],
      [
        "n",
        "ut"
      ],
      [
        "s",
        "ada"
      ],
      [
        "at",
        "t"
      ],
      [
        "am",
        "e"
      ],
      [
        "and",
        "ol"
      ],
      [
        "go",
        "d"
      ],
      [
        "kh",
        "or"
      ],
      [
        "pai",
        "ki"
      ],
      [
        "vi",
        "jay"
      ],
      [
        "et",
        "e"
      ],
      [
        "pa",
        "v"
      ],
      [
        "sar",
        "vas"
      ],
      [
        "sun",
        "dar"
      ],
      [
        "visha",
        "yi"
      ],
      [
        "tant",
        "ra"
      ],
      [
        "a",
        "gra"
      ],
      [
        "i",
        "f"
      ],
      [
        "l",
        "s"
      ],
      [
        "p",
        "c"
      ],
      [
        "vi",
        "ja"
      ],
      [
        "pur",
        "an"
      ],
      [
        "kas",
        "hi"
      ],
      [
        "b",
        "li"
      ],
      [
        "u",
        "z"
      ],
      [
        "ra",
        "ya"
      ],
      [
        "la",
        "pur"
      ],
      [
        "man",
        "av"
      ],
      [
        "kh",
        "ud"
      ],
      [
        "j",
        "ara"
      ],
      [
        "at",
        "ta"
      ],
      [
        "he",
        "m"
      ],
      [
        "pra",
        "san"
      ],
      [
        "kh",
        "ul"
      ],
      [
        "s",
        "kar"
      ],
      [
        "sh",
        "ant"
      ],
      [
        "ni",
        "kal"
      ],
      [
        "go",
        "pal"
      ],
      [
        "bad",
        "ha"
      ],
      [
        "d",
        "ant"
      ],
      [
        "w",
        "el"
      ],
      [
        "y",
        "n"
      ],
      [
        "ch",
        "es"
      ],
      [
        "as",
        "u"
      ],
      [
        "kh",
        "un"
      ],
      [
        "to",
        "l"
      ],
      [
        "t",
        "ut"
      ],
      [
        "kam",
        "a"
      ],
      [
        "baro",
        "barach"
      ],
      [
        "b",
        "b"
      ],
      [
        "at",
        "es"
      ],
      [
        "la",
        "p"
      ],
      [
        "har",
        "on"
      ],
      [
        "ud",
        "ra"
      ],
      [
        "ji",
        "r"
      ],
      [
        "se",
        "m"
      ],
      [
        "bad",
        "al"
      ],
      [
        "chand",
        "i"
      ],
      [
        "ic",
        "s"
      ],
      [
        "d",
        "hin"
      ],
      [
        "k",
        "ate"
      ],
      [
        "n",
        "akar"
      ],
      [
        "s",
        "ind"
      ],
      [
        "li",
        "yan"
      ],
      [
        "ma",
        "c"
      ],
      [
        "ati",
        "c"
      ],
      [
        "mo",
        "di"
      ],
      [
        "vas",
        "tu"
      ],
      [
        "f",
        "le"
      ],
      [
        "la",
        "ga"
      ],
      [
        "st",
        "y"
      ],
      [
        "pak",
        "sh"
      ],
      [
        "gha",
        "ti"
      ],
      [
        "bur",
        "g"
      ],
      [
        "c",
        "ing"
      ],
      [
        "o",
        "c"
      ],
      [
        "sh",
        "wari"
      ],
      [
        "bh",
        "um"
      ],
      [
        "f",
        "one"
      ],
      [
        "g",
        "li"
      ],
      [
        "k",
        "she"
      ],
      [
        "ar",
        "ya"
      ],
      [
        "sh",
        "thi"
      ],
      [
        "ka",
        "en"
      ],
      [
        "up",
        "al"
      ],
      [
        "ru",
        "pa"
      ],
      [
        "f",
        "lu"
      ],
      [
        "en",
        "o"
      ],
      [
        "vi",
        "e"
      ],
      [
        "and",
        "h"
      ],
      [
        "ba",
        "cha"
      ],
      [
        "ka",
        "b"
      ],
      [
        "man",
        "tra"
      ],
      [
        "ala",
        "i"
      ],
      [
        "bhe",
        "d"
      ],
      [
        "f",
        "us"
      ],
      [
        "vi",
        "dh"
      ],
      [
        "ja",
        "gat"
      ],
      [
        "pur",
        "v"
      ],
      [
        "me",
        "m"
      ],
      [
        "char",
        "it"
      ],
      [
        "mit",
        "ra"
      ],
      [
        "kshet",
        "ra"
      ],
      [
        "m",
        "r"
      ],
      [
        "r",
        "ant"
      ],
      [
        "sh",
        "ul"
      ],
      [
        "wa",
        "hi"
      ],
      [
        "bal",
        "l"
      ],
      [
        "bhu",
        "shan"
      ],
      [
        "e",
        "pi"
      ],
      [
        "am",
        "rit"
      ],
      [
        "ka",
        "vya"
      ],
      [
        "pa",
        "p"
      ],
      [
        "ho",
        "li"
      ],
      [
        "mo",
        "ti"
      ],
      [
        "van",
        "shi"
      ],
      [
        "mu",
        "la"
      ],
      [
        "j",
        "ata"
      ],
      [
        "k",
        "ya"
      ],
      [
        "ra",
        "ji"
      ],
      [
        "ta",
        "y"
      ],
      [
        "kar",
        "ne"
      ],
      [
        "st",
        "ak"
      ],
      [
        "de",
        "o"
      ],
      [
        "de",
        "va"
      ],
      [
        "ko",
        "ti"
      ],
      [
        "lak",
        "sh"
      ],
      [
        "n",
        "ari"
      ],
      [
        "o",
        "da"
      ],
      [
        "s",
        "ne"
      ],
      [
        "gi",
        "a"
      ],
      [
        "sen",
        "a"
      ],
      [
        "i",
        "ch"
      ],
      [
        "j",
        "ant"
      ],
      [
        "z",
        "ul"
      ],
      [
        "b",
        "ya"
      ],
      [
        "g",
        "et"
      ],
      [
        "t",
        "et"
      ],
      [
        "ti",
        "m"
      ],
      [
        "brah",
        "ma"
      ],
      [
        "chi",
        "m"
      ],
      [
        "ki",
        "sh"
      ],
      [
        "bas",
        "a"
      ],
      [
        "cul",
        "ar"
      ],
      [
        "g",
        "ata"
      ],
      [
        "k",
        "hara"
      ],
      [
        "v",
        "ate"
      ],
      [
        "y",
        "l"
      ],
      [
        "ch",
        "ri"
      ],
      [
        "ma",
        "he"
      ],
      [
        "kal",
        "yan"
      ],
      [
        "car",
        "d"
      ],
      [
        "mor",
        "e"
      ],
      [
        "in",
        "te"
      ],
      [
        "ma",
        "x"
      ],
      [
        "yo",
        "jan"
      ],
      [
        "ve",
        "li"
      ],
      [
        "mad",
        "hu"
      ],
      [
        "mat",
        "o"
      ],
      [
        "l",
        "ur"
      ],
      [
        "va",
        "chan"
      ],
      [
        "bha",
        "gya"
      ],
      [
        "jan",
        "ya"
      ],
      [
        "bhi",
        "m"
      ],
      [
        "mat",
        "h"
      ],
      [
        "hal",
        "li"
      ],
      [
        "am",
        "adhye"
      ],
      [
        "la",
        "ch"
      ],
      [
        "ali",
        "a"
      ],
      [
        "dhar",
        "am"
      ],
      [
        "w",
        "ade"
      ],
      [
        "z",
        "ad"
      ],
      [
        "cha",
        "lak"
      ],
      [
        "na",
        "gari"
      ],
      [
        "man",
        "t"
      ],
      [
        "so",
        "bat"
      ],
      [
        "una",
        "ch"
      ],
      [
        "r",
        "el"
      ],
      [
        "s",
        "ata"
      ],
      [
        "an",
        "an"
      ],
      [
        "var",
        "on"
      ],
      [
        "bo",
        "ard"
      ],
      [
        "bh",
        "and"
      ],
      [
        "bh",
        "uk"
      ],
      [
        "gri",
        "ha"
      ],
      [
        "c",
        "ut"
      ],
      [
        "f",
        "ak"
      ],
      [
        "i",
        "b"
      ],
      [
        "n",
        "ang"
      ],
      [
        "v",
        "rat"
      ],
      [
        "ch",
        "ani"
      ],
      [
        "en",
        "cy"
      ],
      [
        "vi",
        "ch"
      ],
      [
        "sam",
        "bha"
      ],
      [
        "kari",
        "ta"
      ],
      [
        "gad",
        "e"
      ],
      [
        "en",
        "do"
      ],
      [
        "na",
        "va"
      ],
      [
        "si",
        "g"
      ],
      [
        "pr",
        "in"
      ],
      [
        "ve",
        "ri"
      ],
      [
        "vas",
        "hi"
      ],
      [
        "tar",
        "an"
      ],
      [
        "ci",
        "a"
      ],
      [
        "tion",
        "s"
      ],
      [
        "gam",
        "i"
      ],
      [
        "j",
        "ud"
      ],
      [
        "j",
        "hin"
      ],
      [
        "st",
        "h"
      ],
      [
        "de",
        "kh"
      ],
      [
        "pra",
        "d"
      ],
      [
        "ant",
        "h"
      ],
      [
        "dhan",
        "a"
      ],
      [
        "yak",
        "sh"
      ],
      [
        "vri",
        "d"
      ],
      [
        "e",
        "co"
      ],
      [
        "g",
        "und"
      ],
      [
        "n",
        "s"
      ],
      [
        "o",
        "i"
      ],
      [
        "as",
        "ar"
      ],
      [
        "ba",
        "c"
      ],
      [
        "mar",
        "k"
      ],
      [
        "kari",
        "yon"
      ],
      [
        "hy",
        "per"
      ],
      [
        "ka",
        "h"
      ],
      [
        "ro",
        "j"
      ],
      [
        "shi",
        "sh"
      ],
      [
        "war",
        "d"
      ],
      [
        "at",
        "ing"
      ],
      [
        "un",
        "da"
      ],
      [
        "la",
        "u"
      ],
      [
        "gi",
        "ra"
      ],
      [
        "lak",
        "shmi"
      ],
      [
        "ha",
        "te"
      ],
      [
        "ja",
        "han"
      ],
      [
        "mi",
        "sh"
      ],
      [
        "su",
        "ra"
      ],
      [
        "p",
        "lan"
      ],
      [
        "ar",
        "dh"
      ],
      [
        "cha",
        "li"
      ],
      [
        "ed",
        "ar"
      ],
      [
        "bo",
        "t"
      ],
      [
        "th",
        "on"
      ],
      [
        "e",
        "gi"
      ],
      [
        "f",
        "el"
      ],
      [
        "hi",
        "la"
      ],
      [
        "ch",
        "el"
      ],
      [
        "vi",
        "ve"
      ],
      [
        "zi",
        "a"
      ],
      [
        "sc",
        "ri"
      ],
      [
        "v",
        "inder"
      ],
      [
        "am",
        "al"
      ],
      [
        "ak",
        "sh"
      ],
      [
        "ma",
        "har"
      ],
      [
        "gu",
        "di"
      ],
      [
        "ku",
        "sh"
      ],
      [
        "tri",
        "ya"
      ],
      [
        "ki",
        "a"
      ],
      [
        "kh",
        "et"
      ],
      [
        "jo",
        "t"
      ],
      [
        "sw",
        "at"
      ],
      [
        "nya",
        "y"
      ],
      [
        "c",
        "ine"
      ],
      [
        "d",
        "ali"
      ],
      [
        "u",
        "ram"
      ],
      [
        "par",
        "k"
      ],
      [
        "ation",
        "al"
      ],
      [
        "sand",
        "ar"
      ],
      [
        "o",
        "mi"
      ],
      [
        "at",
        "ya"
      ],
      [
        "and",
        "al"
      ],
      [
        "ma",
        "ch"
      ],
      [
[...]
